<pad>	0
<unk>	0
<s>	0
</s>	0
<sep>	0
<src:english>	0
<src:digits>	0
<src:upper>	0
<src:python>	0
<src:typescript>	0
<src:bash>	0
<src:cmd>	0
<src:powershell>	0
<src:lean>	0
<src:hebrew>	0
<src:greek>	0
<src:latin>	0
<src:aramaic>	0
<tgt:english>	0
<tgt:digits>	0
<tgt:upper>	0
<tgt:python>	0
<tgt:typescript>	0
<tgt:bash>	0
<tgt:cmd>	0
<tgt:powershell>	0
<tgt:lean>	0
<tgt:hebrew>	0
<tgt:greek>	0
<tgt:latin>	0
<tgt:aramaic>	0
<src:lean4>	0
<src:javascript>	0
<src:java>	0
<src:go>	0
<src:php>	0
<src:ruby>	0
<src:c>	0
<src:cpp>	0
<src:rust>	0
<src:csharp>	0
<tgt:lean4>	0
<tgt:javascript>	0
<tgt:java>	0
<tgt:go>	0
<tgt:php>	0
<tgt:ruby>	0
<tgt:c>	0
<tgt:cpp>	0
<tgt:rust>	0
<tgt:csharp>	0
<0x00>	0
<0x01>	0
<0x02>	0
<0x03>	0
<0x04>	0
<0x05>	0
<0x06>	0
<0x07>	0
<0x08>	0
<0x09>	0
<0x0A>	0
<0x0B>	0
<0x0C>	0
<0x0D>	0
<0x0E>	0
<0x0F>	0
<0x10>	0
<0x11>	0
<0x12>	0
<0x13>	0
<0x14>	0
<0x15>	0
<0x16>	0
<0x17>	0
<0x18>	0
<0x19>	0
<0x1A>	0
<0x1B>	0
<0x1C>	0
<0x1D>	0
<0x1E>	0
<0x1F>	0
<0x20>	0
<0x21>	0
<0x22>	0
<0x23>	0
<0x24>	0
<0x25>	0
<0x26>	0
<0x27>	0
<0x28>	0
<0x29>	0
<0x2A>	0
<0x2B>	0
<0x2C>	0
<0x2D>	0
<0x2E>	0
<0x2F>	0
<0x30>	0
<0x31>	0
<0x32>	0
<0x33>	0
<0x34>	0
<0x35>	0
<0x36>	0
<0x37>	0
<0x38>	0
<0x39>	0
<0x3A>	0
<0x3B>	0
<0x3C>	0
<0x3D>	0
<0x3E>	0
<0x3F>	0
<0x40>	0
<0x41>	0
<0x42>	0
<0x43>	0
<0x44>	0
<0x45>	0
<0x46>	0
<0x47>	0
<0x48>	0
<0x49>	0
<0x4A>	0
<0x4B>	0
<0x4C>	0
<0x4D>	0
<0x4E>	0
<0x4F>	0
<0x50>	0
<0x51>	0
<0x52>	0
<0x53>	0
<0x54>	0
<0x55>	0
<0x56>	0
<0x57>	0
<0x58>	0
<0x59>	0
<0x5A>	0
<0x5B>	0
<0x5C>	0
<0x5D>	0
<0x5E>	0
<0x5F>	0
<0x60>	0
<0x61>	0
<0x62>	0
<0x63>	0
<0x64>	0
<0x65>	0
<0x66>	0
<0x67>	0
<0x68>	0
<0x69>	0
<0x6A>	0
<0x6B>	0
<0x6C>	0
<0x6D>	0
<0x6E>	0
<0x6F>	0
<0x70>	0
<0x71>	0
<0x72>	0
<0x73>	0
<0x74>	0
<0x75>	0
<0x76>	0
<0x77>	0
<0x78>	0
<0x79>	0
<0x7A>	0
<0x7B>	0
<0x7C>	0
<0x7D>	0
<0x7E>	0
<0x7F>	0
<0x80>	0
<0x81>	0
<0x82>	0
<0x83>	0
<0x84>	0
<0x85>	0
<0x86>	0
<0x87>	0
<0x88>	0
<0x89>	0
<0x8A>	0
<0x8B>	0
<0x8C>	0
<0x8D>	0
<0x8E>	0
<0x8F>	0
<0x90>	0
<0x91>	0
<0x92>	0
<0x93>	0
<0x94>	0
<0x95>	0
<0x96>	0
<0x97>	0
<0x98>	0
<0x99>	0
<0x9A>	0
<0x9B>	0
<0x9C>	0
<0x9D>	0
<0x9E>	0
<0x9F>	0
<0xA0>	0
<0xA1>	0
<0xA2>	0
<0xA3>	0
<0xA4>	0
<0xA5>	0
<0xA6>	0
<0xA7>	0
<0xA8>	0
<0xA9>	0
<0xAA>	0
<0xAB>	0
<0xAC>	0
<0xAD>	0
<0xAE>	0
<0xAF>	0
<0xB0>	0
<0xB1>	0
<0xB2>	0
<0xB3>	0
<0xB4>	0
<0xB5>	0
<0xB6>	0
<0xB7>	0
<0xB8>	0
<0xB9>	0
<0xBA>	0
<0xBB>	0
<0xBC>	0
<0xBD>	0
<0xBE>	0
<0xBF>	0
<0xC0>	0
<0xC1>	0
<0xC2>	0
<0xC3>	0
<0xC4>	0
<0xC5>	0
<0xC6>	0
<0xC7>	0
<0xC8>	0
<0xC9>	0
<0xCA>	0
<0xCB>	0
<0xCC>	0
<0xCD>	0
<0xCE>	0
<0xCF>	0
<0xD0>	0
<0xD1>	0
<0xD2>	0
<0xD3>	0
<0xD4>	0
<0xD5>	0
<0xD6>	0
<0xD7>	0
<0xD8>	0
<0xD9>	0
<0xDA>	0
<0xDB>	0
<0xDC>	0
<0xDD>	0
<0xDE>	0
<0xDF>	0
<0xE0>	0
<0xE1>	0
<0xE2>	0
<0xE3>	0
<0xE4>	0
<0xE5>	0
<0xE6>	0
<0xE7>	0
<0xE8>	0
<0xE9>	0
<0xEA>	0
<0xEB>	0
<0xEC>	0
<0xED>	0
<0xEE>	0
<0xEF>	0
<0xF0>	0
<0xF1>	0
<0xF2>	0
<0xF3>	0
<0xF4>	0
<0xF5>	0
<0xF6>	0
<0xF7>	0
<0xF8>	0
<0xF9>	0
<0xFA>	0
<0xFB>	0
<0xFC>	0
<0xFD>	0
<0xFE>	0
<0xFF>	0
▁i	-0
re	-1
ce	-2
▁t	-3
de	-4
▁#	-5
▁th	-6
se	-7
▁(	-8
▁/	-9
▁//	-10
▁in	-11
▁f	-12
in	-13
▁s	-14
ou	-15
or	-16
▁the	-17
li	-18
cl	-19
▁r	-20
▁<	-21
clu	-22
clude	-23
include	-24
st	-25
il	-26
ig	-27
oo	-28
our	-29
ource	-30
▁source	-31
igh	-32
ight	-33
is	-34
▁li	-35
cen	-36
rese	-37
cense	-38
▁license	-39
▁)	-40
▁n	-41
am	-42
▁j	-43
▁=	-44
▁:	-45
ve	-46
mp	-47
ort	-48
ct	-49
▁int	-50
▁imp	-51
▁import	-52
va	-53
▁u	-54
ace	-55
ava	-56
▁java	-57
▁a	-58
▁c	-59
ctor	-60
nt	-61
EN	-62
▁d	-63
▁F	-64
nd	-65
ol	-66
▁o	-67
ll	-68
▁[	-69
▁A	-70
▁T	-71
▁is	-72
ile	-73
▁C	-74
SE	-75
boo	-76
an	-77
▁di	-78
▁co	-79
▁of	-80
IC	-81
op	-82
▁un	-83
▁L	-84
der	-85
▁I	-86
ut	-87
▁p	-88
right	-89
ree	-90
▁right	-91
*;	-92
util	-93
▁tree	-94
oot	-95
nc	-96
ur	-97
ound	-98
▁root	-99
resent	-100
▁found	-101
▁under	-102
▁Th	-103
▁code	-104
▁this	-105
opy	-106
rve	-107
ENSE	-108
book	-109
rved	-110
▁All	-111
▁Inc	-112
▁LIC	-113
ctory	-114
▁Copy	-115
▁Face	-116
▁This	-117
▁dire	-118
▁file	-119
▁rese	-120
present	-121
▁rights	-122
▁LICENSE	-123
▁Facebook	-124
▁licensed	-125
▁reserved	-126
▁Copyright	-127
▁directory	-128
gol	-129
gold	-130
▁x	-131
ream	-132
stream	-133
tur	-134
▁+	-135
turn	-136
▁]	-137
▁st	-138
▁re	-139
ing	-140
▁,	-141
ang	-142
.*;	-143
io	-144
▁return	-145
std	-146
at	-147
__	-148
▁if	-149
rr	-150
,)	-151
▁de	-152
▁arr	-153
▁def	-154
,),	-155
ame	-156
▁for	-157
ub	-158
▁{	-159
ring	-160
lic	-161
▁pub	-162
▁public	-163
ic	-164
it	-165
▁stat	-166
▁static	-167
▁==	-168
dd	-169
▁m	-170
ss	-171
pace	-172
▁-	-173
▁cl	-174
space	-175
ir	-176
lang	-177
▁cla	-178
air	-179
fx	-180
▁*;	-181
Pair	-182
▁class	-183
▁javafx	-184
ange	-185
its	-186
ip	-187
▁range	-188
bits	-189
sing	-190
vector	-191
string	-192
▁name	-193
++	-194
++.	-195
iom	-196
lib	-197
anip	-198
cstd	-199
stdc	-200
▁std	-201
▁using	-202
cstdlib	-203
fstream	-204
iomanip	-205
iostream	-206
▁namespace	-207
IN	-208
▁add	-209
▁l	-210
▁R	-211
lu	-212
lus	-213
▁Re	-214
▁plus	-215
▁Return	-216
ER	-217
um	-218
▁e	-219
UM	-220
▁b	-221
▁*	-222
OF	-223
▁$	-224
ar	-225
ac	-226
▁'	-227
LL	-228
ack	-229
AR	-230
▁;	-231
):	-232
ma	-233
er	-234
int	-235
OFI	-236
TOFI	-237
TOFILL	-238
▁__	-239
al	-240
ount	-241
▁}	-242
name	-243
le	-244
RA	-245
▁res	-246
▁S	-247
▁'__	-248
▁par	-249
main	-250
ON	-251
en	-252
':	-253
__':	-254
▁],	-255
▁str	-256
▁param	-257
▁+=	-258
TH	-259
▁N	-260
▁w	-261
▁count	-262
ST	-263
LE	-264
ING	-265
▁k	-266
▁>	-267
UMB	-268
UMBER	-269
▁wh	-270
▁num	-271
▁y	-272
▁fa	-273
IM	-274
RE	-275
NUMBER	-276
▁while	-277
AT	-278
▁len	-279
▁sum	-280
ARRA	-281
sm	-282
llb	-283
smol	-284
stack	-285
llback	-286
▁fallback	-287
rem	-288
▁boo	-289
OR	-290
AN	-291
ARRAY	-292
▁lo	-293
IV	-294
▁ma	-295
orem	-296
▁theorem	-297
AL	-298
▁:=	-299
▁max	-300
RO	-301
ath	-302
ENT	-303
me	-304
▁%	-305
ul	-306
▁and	-307
ru	-308
▁M	-309
▁P	-310
IND	-311
▁that	-312
IMUM	-313
▁h	-314
▁ex	-315
ult	-316
▁\	-317
CT	-318
▁dp	-319
ci	-320
ne	-321
ro	-322
▁string	-323
set	-324
pe	-325
▁an	-326
IT	-327
QU	-328
OU	-329
▁St	-330
▁el	-331
▁result	-332
co	-333
▁G	-334
▁or	-335
▁else	-336
cise	-337
id	-338
▁exer	-339
▁exercise	-340
▁lon	-341
▁math	-342
ble	-343
CE	-344
▁long	-345
gr	-346
▁String	-347
ION	-348
ED	-349
qu	-350
LEM	-351
IVEN	-352
oup	-353
group	-354
▁cur	-355
lo	-356
GIVEN	-357
ver	-358
sum	-359
▁bool	-360
SU	-361
▁X	-362
SUM	-363
DI	-364
▁ans	-365
$.	-366
ype	-367
RING	-368
▁<=	-369
ELEM	-370
▁FIND	-371
▁min	-372
ot	-373
ELEMENT	-374
AX	-375
alse	-376
lean	-377
▁Tru	-378
ri	-379
▁False	-380
CH	-381
RI	-382
IR	-383
▁boolean	-384
IS	-385
▁True	-386
ow	-387
SUB	-388
ber	-389
▁set	-390
ES	-391
NT	-392
pp	-393
EC	-394
ENCE	-395
OUNT	-396
▁curr	-397
!=	-398
mm	-399
▁!=	-400
STRING	-401
AXIMUM	-402
rove	-403
▁COUNT	-404
▁number	-405
GE	-406
GRA	-407
very	-408
▁every	-409
▁$\	-410
comm	-411
▁&	-412
TO	-413
▁te	-414
▁Type	-415
▁by	-416
ga	-417
TW	-418
▁v	-419
PO	-420
mega	-421
▁equ	-422
als	-423
ITH	-424
PRO	-425
▁For	-426
▁mid	-427
INIMUM	-428
▁Prove	-429
TE	-430
et	-431
uc	-432
▁→	-433
▁low	-434
▁equals	-435
cpp	-436
▁na	-437
rust	-438
▁Add	-439
▁Nat	-440
tural	-441
▁omega	-442
▁natural	-443
GRAM	-444
NUMBERS	-445
PA	-446
▁ch	-447
*}	-448
OD	-449
▁H	-450
▁>=	-451
UL	-452
▁B	-453
ion	-454
sig	-455
SING	-456
os	-457
ECK	-458
▁si	-459
▁ret	-460
▁unsig	-461
▁flo	-462
CON	-463
▁MAXIMUM	-464
▁K	-465
▁ℝ	-466
TWO	-467
ACT	-468
count	-469
))	-470
rev	-471
math	-472
sort	-473
_{	-474
▁z	-475
▁sub	-476
rime	-477
▁temp	-478
▁∧	-479
▁be	-480
▁dou	-481
^{	-482
ys	-483
▁V	-484
SET	-485
FF	-486
ed	-487
}$	-488
▁high	-489
▁double	-490
EX	-491
ORT	-492
es	-493
▁D	-494
▁ℕ	-495
▁∀	-496
IVE	-497
▁not	-498
▁float	-499
ap	-500
CO	-501
ff	-502
▁^	-503
▁∃	-504
ze	-505
PER	-506
WITH	-507
SI	-508
▁([	-509
▁CH	-510
▁ab	-511
CU	-512
ive	-513
able	-514
ME	-515
od	-516
▁|	-517
VER	-518
▁('	-519
PAIR	-520
▁retu	-521
▁ne	-522
ATION	-523
si	-524
ose	-525
SORT	-526
cess	-527
ELEMENTS	-528
),	-529
WH	-530
th	-531
ALL	-532
rea	-533
▁PRO	-534
▁CHECK	-535
ft	-536
rt	-537
EQU	-538
suc	-539
as	-540
art	-541
lif	-542
▁>>	-543
SEQU	-544
mathb	-545
▁elif	-546
▁side	-547
SEQUENCE	-548
▁MINIMUM	-549
AND	-550
how	-551
ter	-552
▁-=	-553
USING	-554
▁PROGRAM	-555
VAL	-556
olo	-557
qrt	-558
top	-559
▁<<	-560
▁SUM	-561
▁cont	-562
success	-563
▁ar	-564
▁abs	-565
▁start	-566
ARE	-567
THE	-568
▁se	-569
EQUAL	-570
▁char	-571
DU	-572
xt	-573
▁unsigne	-574
ly	-575
REP	-576
inu	-577
DIFF	-578
▁sys	-579
DIFFER	-580
SORTED	-581
THER	-582
olog	-583
▁Let	-584
Count	-585
▁Show	-586
▁unsigned	-587
FOR	-588
ITS	-589
dex	-590
size	-591
▁ℂ	-592
ANG	-593
max	-594
▁sm	-595
VALU	-596
sqrt	-597
▁"	-598
DUCT	-599
appe	-600
append	-601
AC	-602
BLE	-603
WER	-604
oid	-605
▁continu	-606
$,	-607
WA	-608
▁prev	-609
▁subgroup	-610
▁∈	-611
REE	-612
▁pos	-613
POWER	-614
▁void	-615
AD	-616
NO	-617
du	-618
▁q	-619
ere	-620
fin	-621
▁one	-622
▁brea	-623
▁diff	-624
PL	-625
▁U	-626
val	-627
DIST	-628
▁dict	-629
▁NUMBER	-630
PAR	-631
▁ba	-632
▁le	-633
INTE	-634
mathbb	-635
FACT	-636
igit	-637
▁end	-638
▁leng	-639
FACTOR	-640
SUBARRAY	-641
DIFFERENCE	-642
IF	-643
DIG	-644
GER	-645
IAL	-646
INT	-647
ous	-648
▁mat	-649
PRODUCT	-650
TI	-651
▁g	-652
BIN	-653
RES	-654
GEST	-655
SUBSEQUENCE	-656
on	-657
DIV	-658
▁con	-659
▁break	-660
▁Y	-661
REA	-662
CHAR	-663
▁mod	-664
ACTER	-665
PAIRS	-666
▁base	-667
▁index	-668
MAXIMUM	-669
MINIMUM	-670
CHARACTER	-671
MO	-672
MAT	-673
ONE	-674
ven	-675
▁pro	-676
prime	-677
intype	-678
INTEGER	-679
▁continuous	-680
OW	-681
POS	-682
TRI	-683
ard	-684
mal	-685
FIND	-686
ction	-687
▁group	-688
▁order	-689
topolog	-690
▁(-	-691
▁has	-692
VALUE	-693
)$	-694
ZE	-695
ARY	-696
ENG	-697
IRC	-698
▁DP	-699
▁mp	-700
',),	-701
ameter	-702
▁length	-703
UN	-704
eg	-705
▁_	-706
MOD	-707
PLE	-708
WAY	-709
ite	-710
oly	-711
ID	-712
OL	-713
▁E	-714
IME	-715
RIX	-716
TER	-717
CIRC	-718
FORM	-719
Prev	-720
ANGLE	-721
MATRIX	-722
RESENT	-723
▁prime	-724
UT	-725
log	-726
one	-727
▁on	-728
OPER	-729
THAT	-730
cted	-731
ment	-732
▁ord	-733
DIVIS	-734
ormal	-735
PROGRAM	-736
ph	-737
CUR	-738
left	-739
valu	-740
ENGTH	-741
THREE	-742
BINARY	-743
DIGITS	-744
nected	-745
fintype	-746
GH	-747
OM	-748
act	-749
▁Su	-750
osed	-751
▁next	-752
▁then	-753
lement	-754
BE	-755
MA	-756
OC	-757
▁.	-758
Arr	-759
NOT	-760
uch	-761
ical	-762
oint	-763
ITION	-764
FACTORIAL	-765
FI	-766
om	-767
ue	-768
CUT	-769
▁op	-770
▁ℝ)	-771
REPE	-772
▁div	-773
AA	-774
KE	-775
hp	-776
ie	-777
iv	-778
OUT	-779
SQU	-780
WHE	-781
ero	-782
ial	-783
mod	-784
put	-785
▁ef	-786
▁tw	-787
▁ℕ}	-788
IRST	-789
ULTI	-790
ppose	-791
▁such	-792
LENGTH	-793
▁table	-794
WHETHER	-795
WITHOUT	-796
ameters	-797
maxsize	-798
▁parameters	-799
ey	-800
un	-801
ric	-802
▁at	-803
duct	-804
eger	-805
▁key	-806
▁pre	-807
▁poly	-808
ARRAYS	-809
▁Suppose	-810
AM	-811
DE	-812
EV	-813
hf	-814
▁¬	-815
ATE	-816
END	-817
NON	-818
ODD	-819
ROT	-820
end	-821
▁If	-822
isor	-823
ation	-824
itive	-825
topological	-826
IL	-827
NE	-828
▁≠	-829
EXT	-830
LAR	-831
NGE	-832
ist	-833
nom	-834
wer	-835
ULAR	-836
WAYS	-837
▁are	-838
ative	-839
REPEAT	-840
▁there	-841
▁divisor	-842
',	-843
COM	-844
ITE	-845
OSE	-846
cal	-847
inf	-848
xor	-849
▁|=	-850
EVEN	-851
irst	-852
open	-853
▁der	-854
▁fin	-855
CHECK	-856
FIRST	-857
WHOSE	-858
eight	-859
▁dist	-860
ONGEST	-861
finite	-862
nomial	-863
▁digit	-864
▁first	-865
CHARACTERS	-866
AP	-867
AS	-868
CI	-869
ad	-870
ay	-871
CAN	-872
EST	-873
ITY	-874
ORD	-875
ROW	-876
ast	-877
▁pr	-878
MALL	-879
▁odd	-880
▁pow	-881
ATIVE	-882
CONSE	-883
▁card	-884
▁comp	-885
▁even	-886
CUTIVE	-887
▁space	-888
REPRESENT	-889
CONSECUTIVE	-890
hG	-891
ld	-892
ty	-893
GHT	-894
ISE	-895
MOV	-896
Sum	-897
ele	-898
}$.	-899
ARCH	-900
PART	-901
▁bin	-902
▁col	-903
▁top	-904
OCCUR	-905
value	-906
▁fact	-907
▁left	-908
▁sort	-909
CIRCLE	-910
OPERAT	-911
SEARCH	-912
▁prove	-913
STRINGS	-914
mathcal	-915
▁element	-916
}(	-917
}\	-918
ADJ	-919
BON	-920
PAL	-921
arr	-922
ash	-923
sto	-924
▁""	-925
ACCI	-926
MENT	-927
SION	-928
rice	-929
▁tot	-930
ACENT	-931
INDRO	-932
MULTI	-933
SIBLE	-934
▁Hash	-935
▁open	-936
SUBSET	-937
BONACCI	-938
MALLEST	-939
ADJACENT	-940
PALINDRO	-941
▁integer	-942
Se	-943
ck	-944
})	-945
▁ℤ	-946
AST	-947
GRE	-948
UTE	-949
add	-950
ges	-951
ime	-952
rre	-953
▁ms	-954
▁ℂ)	-955
BLEM	-956
INCT	-957
MAKE	-958
deal	-959
duci	-960
mpty	-961
▁all	-962
▁cnt	-963
▁rem	-964
▁row	-965
MODUL	-966
digit	-967
▁irre	-968
▁ones	-969
▁size	-970
PROBLEM	-971
ducible	-972
▁answer	-973
DISTINCT	-974
OPERATOR	-975
▁irreducible	-976
)=	-977
MS	-978
PH	-979
PR	-980
go	-981
ib	-982
▁Ω	-983
IMI	-984
^{\	-985
con	-986
mit	-987
nti	-988
rom	-989
vel	-990
▁$(	-991
BITS	-992
IMAL	-993
SIZE	-994
ence	-995
erat	-996
INDEX	-997
OTHER	-998
ndsto	-999
ATIONS	-1000
▁total	-1001
▁normal	-1002
▁LONGEST	-1003
▁tendsto	-1004
FIBONACCI	-1005
PALINDROME	-1006
LY	-1007
di	-1008
hA	-1009
of	-1010
DEC	-1011
ICI	-1012
SER	-1013
ibo	-1014
ith	-1015
▁(𝓝	-1016
▁pa	-1017
ANCE	-1018
EVER	-1019
IBLE	-1020
REQU	-1021
RIES	-1022
EVERY	-1023
FFICI	-1024
▁fibo	-1025
▁last	-1026
MODULO	-1027
SQUARE	-1028
closed	-1029
▁limit	-1030
▁pPrev	-1031
▁sorted	-1032
▁yCount	-1033
FFICIENT	-1034
AG	-1035
LO	-1036
OS	-1037
OT	-1038
PE	-1039
if	-1040
so	-1041
▁↔	-1042
NEG	-1043
TIM	-1044
ity	-1045
low	-1046
ner	-1047
▁to	-1048
cond	-1049
▁inc	-1050
▁two	-1051
IMIZE	-1052
TIMES	-1053
▁mult	-1054
▁real	-1055
SERIES	-1056
mathbf	-1057
▁ideal	-1058
unction	-1059
▁second	-1060
NEGATIVE	-1061
▁product	-1062
connected	-1063
,-	-1064
BY	-1065
Di	-1066
\{	-1067
\|	-1068
],	-1069
ix	-1070
ps	-1071
▁ℚ	-1072
COL	-1073
FRO	-1074
ICE	-1075
INC	-1076
ded	-1077
erm	-1078
osu	-1079
que	-1080
▁$|	-1081
▁*=	-1082
▁it	-1083
ATER	-1084
FROM	-1085
MING	-1086
SERT	-1087
Seen	-1088
ield	-1089
▁Sum	-1090
▁val	-1091
POINT	-1092
RANGE	-1093
joint	-1094
osure	-1095
▁only	-1096
▁sequ	-1097
▁with	-1098
FORMED	-1099
INSERT	-1100
ending	-1101
▁input	-1102
▁level	-1103
ANOTHER	-1104
GREATER	-1105
REASING	-1106
▁height	-1107
DISTANCE	-1108
TRIANGLE	-1109
▁differe	-1110
▁oneSeen	-1111
▁topolog	-1112
DIVISIBLE	-1113
REPEATING	-1114
▁sequence	-1115
▁polynomial	-1116
}+	-1117
ALC	-1118
AME	-1119
EEN	-1120
SOL	-1121
get	-1122
▁''	-1123
▁**	-1124
▁RE	-1125
AGON	-1126
BETW	-1127
card	-1128
▁dis	-1129
▁neg	-1130
ALCUL	-1131
GRAPH	-1132
ITIVE	-1133
verse	-1134
▁None	-1135
▁incl	-1136
▁print	-1137
BETWEEN	-1138
▁subset	-1139
ALCULATE	-1140
POSSIBLE	-1141
▁function	-1142
▁infinite	-1143
▁positive	-1144
▁connected	-1145
*)	-1146
YN	-1147
fr	-1148
ge	-1149
ke	-1150
pi	-1151
}{	-1152
▁α	-1153
▁‖	-1154
)$.	-1155
BIT	-1156
EXI	-1157
INE	-1158
MET	-1159
\}$	-1160
eli	-1161
ent	-1162
far	-1163
fix	-1164
map	-1165
orm	-1166
oun	-1167
ule	-1168
▁BT	-1169
▁ℕ)	-1170
AMIC	-1171
AREA	-1172
DELE	-1173
PLET	-1174
RECT	-1175
SUCH	-1176
TIME	-1177
WISE	-1178
frac	-1179
here	-1180
imes	-1181
keys	-1182
ylow	-1183
zero	-1184
▁>>=	-1185
▁dec	-1186
▁let	-1187
▁met	-1188
EXIST	-1189
arrow	-1190
elian	-1191
umber	-1192
▁area	-1193
▁comm	-1194
▁excl	-1195
▁zero	-1196
YNAMIC	-1197
module	-1198
normal	-1199
▁point	-1200
▁price	-1201
▁retur	-1202
▁where	-1203
ANGULAR	-1204
TRIPLET	-1205
▁SEARCH	-1206
▁conver	-1207
▁metric	-1208
INTEGERS	-1209
▁SMALLEST	-1210
rightarrow	-1211
PROGRAMMING	-1212
).	-1213
TA	-1214
UP	-1215
cd	-1216
}=	-1217
▁Q	-1218
▁~	-1219
▁⊆	-1220
INS	-1221
LES	-1222
NOD	-1223
OUS	-1224
all	-1225
met	-1226
▁id	-1227
▁no	-1228
PLIC	-1229
LARGE	-1230
iform	-1231
range	-1232
▁hash	-1233
▁stri	-1234
VALUES	-1235
metric	-1236
▁array	-1237
▁colle	-1238
▁exist	-1239
ntiable	-1240
onempty	-1241
▁closed	-1242
DIVISION	-1243
▁collection	-1244
BO	-1245
HE	-1246
WR	-1247
iT	-1248
ls	-1249
te	-1250
up	-1251
ADD	-1252
ALG	-1253
ATU	-1254
DES	-1255
ECT	-1256
ICK	-1257
MUT	-1258
OUR	-1259
PLY	-1260
PRE	-1261
RAL	-1262
RIB	-1263
UME	-1264
UMN	-1265
VOL	-1266
WAP	-1267
mps	-1268
phi	-1269
pro	-1270
rra	-1271
sub	-1272
var	-1273
▁PR	-1274
▁bo	-1275
▁ju	-1276
▁po	-1277
▁um	-1278
AAAA	-1279
COND	-1280
METH	-1281
NATU	-1282
SIVE	-1283
erms	-1284
ient	-1285
root	-1286
▁COM	-1287
▁HOW	-1288
▁deg	-1289
▁new	-1290
ALGOR	-1291
ARITH	-1292
CONST	-1293
EXTRA	-1294
ORDER	-1295
RENCE	-1296
WRITE	-1297
field	-1298
▁Arra	-1299
▁coin	-1300
▁from	-1301
▁msis	-1302
COLUMN	-1303
DELETE	-1304
METHOD	-1305
PERMUT	-1306
VOLUME	-1307
iTerms	-1308
▁jumps	-1309
▁stack	-1310
NATURAL	-1311
ational	-1312
▁countB	-1313
▁prefix	-1314
ALGORITH	-1315
topology	-1316
▁DYNAMIC	-1317
▁abelian	-1318
▁reverse	-1319
EFFICIENT	-1320
OPERATORS	-1321
RECTANGLE	-1322
▁elements	-1323
INCREASING	-1324
OCCURRENCE	-1325
▁multiTerms	-1326
▁differentiable	-1327
)^	-1328
AB	-1329
CD	-1330
KS	-1331
RU	-1332
ab	-1333
}_	-1334
▁≤	-1335
min	-1336
ots	-1337
pha	-1338
pow	-1339
ume	-1340
▁(∀	-1341
IGHT	-1342
LINE	-1343
MOST	-1344
SAME	-1345
TREE	-1346
comp	-1347
igen	-1348
sion	-1349
▁POS	-1350
▁ℝ),	-1351
CTION	-1352
DIGIT	-1353
NODES	-1354
RIGHT	-1355
UTION	-1356
alpha	-1357
index	-1358
▁ring	-1359
varphi	-1360
AXIMIZE	-1361
PRESENT	-1362
SUBSETS	-1363
VERSION	-1364
▁closure	-1365
▁compact	-1366
▁continue	-1367
▁nonempty	-1368
▁converges	-1369
('	-1370
BU	-1371
Cr	-1372
FL	-1373
IG	-1374
Ma	-1375
PS	-1376
UR	-1377
hH	-1378
|=	-1379
▁∣	-1380
▁⊤	-1381
AGE	-1382
ALS	-1383
CHO	-1384
DER	-1385
Len	-1386
RIC	-1387
RON	-1388
TRA	-1389
ach	-1390
ain	-1391
are	-1392
ich	-1393
leq	-1394
men	-1395
nee	-1396
neg	-1397
out	-1398
pan	-1399
xes	-1400
▁mn	-1401
▁ℝ}	-1402
ARES	-1403
ATED	-1404
AVER	-1405
FECT	-1406
FOUR	-1407
IGIN	-1408
ISON	-1409
PACE	-1410
PUTE	-1411
THAN	-1412
eros	-1413
mall	-1414
mple	-1415
ueue	-1416
ular	-1417
▁'('	-1418
▁any	-1419
▁cum	-1420
▁idx	-1421
▁nCr	-1422
▁nat	-1423
▁out	-1424
▁seq	-1425
▁vis	-1426
▁xor	-1427
Array	-1428
BINOM	-1429
COUNT	-1430
INDER	-1431
LEAST	-1432
METIC	-1433
PRIME	-1434
RECUR	-1435
REMOV	-1436
SIDES	-1437
ition	-1438
quare	-1439
▁csum	-1440
▁each	-1441
▁imin	-1442
▁strA	-1443
▁twos	-1444
COMPAR	-1445
Number	-1446
ORIGIN	-1447
▁Queue	-1448
▁WRITE	-1449
▁boxes	-1450
▁small	-1451
▁which	-1452
▁zeros	-1453
AVERAGE	-1454
LARGEST	-1455
SQUARES	-1456
compact	-1457
mension	-1458
product	-1459
▁Arrays	-1460
▁aCount	-1461
▁exists	-1462
▁finite	-1463
BINOMIAL	-1464
PRODUCTS	-1465
▁COMPUTE	-1466
▁dpArray	-1467
▁nextval	-1468
ARITHMETIC	-1469
COMPARISON	-1470
SUBSTRINGS	-1471
COEFFICIENT	-1472
OCCURRENCES	-1473
REPRESENTED	-1474
CS	-1475
Re	-1476
TS	-1477
}-	-1478
▁ι	-1479
▁∨	-1480
▁≡	-1481
ACE	-1482
ANT	-1483
ARD	-1484
GCD	-1485
ICO	-1486
IGH	-1487
QUE	-1488
XOR	-1489
]$.	-1490
eff	-1491
flo	-1492
fty	-1493
ine	-1494
len	-1495
pop	-1496
ulo	-1497
▁so	-1498
▁ℕ,	-1499
APPE	-1500
COST	-1501
OVER	-1502
TAIN	-1503
UOUS	-1504
WORD	-1505
ally	-1506
mult	-1507
vari	-1508
▁SQU	-1509
▁den	-1510
▁dig	-1511
gular	-1512
infty	-1513
▁list	-1514
▁same	-1515
APPEAR	-1516
erator	-1517
values	-1518
ARRANGE	-1519
DECIMAL	-1520
GRAPHIC	-1521
adjoint	-1522
▁comple	-1523
▁digits	-1524
▁modulo	-1525
MULTIPLE	-1526
POSITIVE	-1527
REPEATED	-1528
SOLUTION	-1529
▁uniform	-1530
DIFFERENT	-1531
MULTIPLIC	-1532
▁topology	-1533
CONVERSION	-1534
ICOGRAPHIC	-1535
MULTIPLICATION	-1536
)'	-1537
=\	-1538
CY	-1539
IB	-1540
In	-1541
NS	-1542
Ne	-1543
PY	-1544
Sq	-1545
YS	-1546
em	-1547
hn	-1548
hx	-1549
ra	-1550
ux	-1551
yc	-1552
ym	-1553
}[	-1554
⁻¹	-1555
▁×	-1556
▁β	-1557
▁•	-1558
ASE	-1559
CAT	-1560
FER	-1561
FIX	-1562
HED	-1563
IRE	-1564
LOC	-1565
MIN	-1566
MON	-1567
Max	-1568
OCT	-1569
ONG	-1570
ORE	-1571
STE	-1572
TIG	-1573
^{-	-1574
fit	-1575
gly	-1576
idx	-1577
ign	-1578
leH	-1579
ncy	-1580
ock	-1581
rot	-1582
thE	-1583
}$,	-1584
▁((	-1585
▁({	-1586
▁MS	-1587
▁gr	-1588
▁mx	-1589
▁sc	-1590
▁||	-1591
▁ℚ)	-1592
ALLY	-1593
ANGE	-1594
IRED	-1595
ISED	-1596
ITER	-1597
Next	-1598
OWED	-1599
PICK	-1600
PING	-1601
REAK	-1602
REMA	-1603
SIDE	-1604
TEST	-1605
TING	-1606
apac	-1607
cont	-1608
iple	-1609
poly	-1610
reen	-1611
ries	-1612
▁')'	-1613
▁//=	-1614
▁<<=	-1615
▁Int	-1616
▁LAR	-1617
▁LEX	-1618
▁Str	-1619
▁aux	-1620
▁chr	-1621
▁cor	-1622
▁fre	-1623
▁gen	-1624
▁ins	-1625
▁lis	-1626
▁lps	-1627
▁map	-1628
▁mls	-1629
▁msd	-1630
▁per	-1631
AMONG	-1632
DIVID	-1633
FREQU	-1634
ILING	-1635
PARTS	-1636
Prime	-1637
REACH	-1638
REVER	-1639
SPACE	-1640
yclic	-1641
▁SORT	-1642
▁Stri	-1643
▁bell	-1644
▁five	-1645
▁maxA	-1646
▁nthE	-1647
▁prod	-1648
▁sign	-1649
▁some	-1650
▁ugly	-1651
▁unlo	-1652
▁vari	-1653
CIRCUM	-1654
CONTIG	-1655
HEDRON	-1656
IMETER	-1657
POINTS	-1658
RAISED	-1659
needed	-1660
ounded	-1661
quency	-1662
▁capac	-1663
▁deriv	-1664
▁eigen	-1665
▁lower	-1666
▁maxDi	-1667
▁notes	-1668
▁pNext	-1669
▁pages	-1670
▁stati	-1671
▁times	-1672
ALLOWED	-1673
DISTRIB	-1674
FACTORS	-1675
FREQUEN	-1676
PERFECT	-1677
ROTATED	-1678
mainder	-1679
▁auxArr	-1680
▁change	-1681
▁corner	-1682
▁degree	-1683
▁maxSum	-1684
▁maxval	-1685
▁parity	-1686
▁profit	-1687
▁screen	-1688
▁series	-1689
POSITION	-1690
REMOVING	-1691
REQUIRED	-1692
ROTATION	-1693
leHeight	-1694
▁LARGEST	-1695
▁evenArr	-1696
▁leftMax	-1697
CONDITION	-1698
INSERTION	-1699
PERIMETER	-1700
ROTATIONS	-1701
SEQUENCES	-1702
SUBARRAYS	-1703
countable	-1704
▁MAXIMIZE	-1705
▁capacity	-1706
▁diameter	-1707
▁maxPrime	-1708
▁maxvalue	-1709
▁position	-1710
▁prevPrev	-1711
CONTIGUOUS	-1712
TRIANGULAR	-1713
polynomial	-1714
▁CALCULATE	-1715
▁countable	-1716
▁fiveCount	-1717
▁frequency	-1718
▁pPrevPrev	-1719
▁remainder	-1720
PERMUTATION	-1721
▁nthElement	-1722
COEFFICIENTS	-1723
▁templeHeight	-1724
▁LEXICOGRAPHIC	-1725
CK	-1726
OB	-1727
ag	-1728
bd	-1729
hM	-1730
us	-1731
},	-1732
▁@	-1733
)))	-1734
GET	-1735
ISH	-1736
MIS	-1737
One	-1738
ant	-1739
bda	-1740
lam	-1741
mul	-1742
new	-1743
▁'-	-1744
▁(∑	-1745
▁fl	-1746
▁pl	-1747
▁xp	-1748
▁ℤ)	-1749
FLOW	-1750
IQUE	-1751
LAST	-1752
ROOT	-1753
ZMOD	-1754
oper	-1755
orph	-1756
▁NTH	-1757
▁mon	-1758
▁ℕ),	-1759
ADDED	-1760
Omega	-1761
angle	-1762
floor	-1763
inner	-1764
▁NEXT	-1765
▁SWAP	-1766
▁maxi	-1767
▁sqrt	-1768
▁text	-1769
center	-1770
lambda	-1771
otient	-1772
subset	-1773
▁MULTI	-1774
▁dense	-1775
CONTAIN	-1776
MISSING	-1777
UNCTION	-1778
▁SQUARE	-1779
▁common	-1780
▁proper	-1781
OVERFLOW	-1782
SMALLEST	-1783
operator	-1784
▁fintype	-1785
▁generat	-1786
▁regular	-1787
CALCULATE	-1788
PARTITION	-1789
SUBSTRING	-1790
▁MULTIPLY	-1791
▁disjoint	-1792
▁negative	-1793
▁subspace	-1794
ALGORITHMS	-1795
OPERATIONS	-1796
operatorname	-1797
$-	-1798
(\	-1799
AF	-1800
AI	-1801
DD	-1802
FY	-1803
OP	-1804
SC	-1805
SH	-1806
US	-1807
VE	-1808
WE	-1809
_\	-1810
bb	-1811
lf	-1812
}:	-1813
▁∑	-1814
)$,	-1815
ADE	-1816
Cur	-1817
DLE	-1818
ERI	-1819
EXP	-1820
JUM	-1821
Min	-1822
NER	-1823
NTH	-1824
RAM	-1825
Res	-1826
Rev	-1827
SAT	-1828
SIG	-1829
TEN	-1830
TOT	-1831
Xor	-1832
YTH	-1833
beg	-1834
cap	-1835
dth	-1836
eap	-1837
eck	-1838
equ	-1839
est	-1840
ilp	-1841
kup	-1842
mai	-1843
mid	-1844
neq	-1845
not	-1846
odd	-1847
ord	-1848
pos	-1849
wid	-1850
ymb	-1851
▁$-	-1852
▁--	-1853
▁GM	-1854
▁In	-1855
▁PA	-1856
▁ST	-1857
▁].	-1858
▁bi	-1859
▁en	-1860
▁fo	-1861
▁ip	-1862
▁mi	-1863
▁us	-1864
▁yS	-1865
ARRI	-1866
CASE	-1867
Curr	-1868
Diff	-1869
ECUR	-1870
EITH	-1871
ERSE	-1872
Even	-1873
GRAL	-1874
HEAP	-1875
ISFY	-1876
Insi	-1877
LOCK	-1878
MADE	-1879
MEAN	-1880
MOVE	-1881
TERM	-1882
UNIT	-1883
ains	-1884
ceil	-1885
code	-1886
dean	-1887
diff	-1888
elem	-1889
even	-1890
olva	-1891
ront	-1892
span	-1893
ucli	-1894
xtbb	-1895
▁ADD	-1896
▁Boo	-1897
▁DEC	-1898
▁MID	-1899
▁TRI	-1900
▁brr	-1901
▁dep	-1902
▁irr	-1903
▁loc	-1904
▁loo	-1905
▁mem	-1906
▁vol	-1907
ABSOL	-1908
AFTER	-1909
CATEN	-1910
ILITY	-1911
INTRO	-1912
IRING	-1913
ITEMS	-1914
MENTS	-1915
OUBLE	-1916
PLETE	-1917
TERMS	-1918
TWICE	-1919
UNDER	-1920
WORDS	-1921
acter	-1922
begin	-1923
clock	-1924
deriv	-1925
equiv	-1926
ilpot	-1927
istic	-1928
ldots	-1929
price	-1930
stant	-1931
times	-1932
width	-1933
▁AREA	-1934
▁PYTH	-1935
▁anti	-1936
▁best	-1937
▁diag	-1938
▁imax	-1939
▁maxB	-1940
▁plat	-1941
▁show	-1942
▁strB	-1943
▁symb	-1944
▁word	-1945
COMMON	-1946
EITHER	-1947
EXISTS	-1948
HEIGHT	-1949
INSIDE	-1950
Inside	-1951
POSITE	-1952
PREFIX	-1953
REMENT	-1954
UNIQUE	-1955
imeter	-1956
orphic	-1957
ources	-1958
rement	-1959
▁RECUR	-1960
▁Stack	-1961
▁check	-1962
▁front	-1963
▁inter	-1964
▁monot	-1965
▁nxtbb	-1966
▁pCurr	-1967
AHEDRON	-1968
CIRCLES	-1969
DUCTION	-1970
FERENCE	-1971
IMALITY	-1972
INTERSE	-1973
RESSION	-1974
SATISFY	-1975
olvable	-1976
▁MIDDLE	-1977
▁REMOVE	-1978
▁bCount	-1979
▁center	-1980
▁countA	-1981
▁countS	-1982
▁cummul	-1983
▁isEven	-1984
▁lookup	-1985
▁maxLen	-1986
▁maxRev	-1987
▁minRes	-1988
▁minXor	-1989
▁minval	-1990
▁unlock	-1991
▁vector	-1992
▁volume	-1993
ABSOLUTE	-1994
COMPLETE	-1995
CONCATEN	-1996
INTEGRAL	-1997
ORIGINAL	-1998
PAIRWISE	-1999
ilpotent	-2000
multiple	-2001
uclidean	-2002
▁Boolean	-2003
▁Integer	-2004
▁breadth	-2005
▁complex	-2006
▁locally	-2007
▁maxDict	-2008
▁process	-2009
▁ySquare	-2010
DISTRIBUT	-2011
FREQUENCY	-2012
ITERATIVE	-2013
OCCURRING	-2014
RECURSIVE	-2015
REMAINDER	-2016
dimension	-2017
▁constant	-2018
▁integers	-2019
▁rational	-2020
▁rightMin	-2021
▁variable	-2022
REPRESENTS	-2023
acteristic	-2024
▁EFFICIENT	-2025
▁PRIMALITY	-2026
▁RECURSIVE	-2027
▁anticlock	-2028
▁increment	-2029
▁perimeter	-2030
COMPARISONS	-2031
dimensional	-2032
▁TRIANGULAR	-2033
▁irrational	-2034
INTRODUCTION	-2035
SUBSEQUENCES	-2036
▁checkNumber	-2037
▁cummulative	-2038
CIRCUMFERENCE	-2039
▁minResources	-2040
▁elementsInside	-2041
''	-2042
)\	-2043
)}	-2044
-\	-2045
IP	-2046
MP	-2047
SP	-2048
UB	-2049
UC	-2050
cc	-2051
hT	-2052
hX	-2053
hg	-2054
na	-2055
pr	-2056
su	-2057
}^	-2058
▁J	-2059
▁λ	-2060
▁∅	-2061
▁⧸	-2062
▁𝕜	-2063
DOM	-2064
GRI	-2065
GRO	-2066
HAL	-2067
ILD	-2068
Ici	-2069
Ioo	-2070
ate	-2071
bit	-2072
geq	-2073
rim	-2074
}+\	-2075
▁&=	-2076
▁ha	-2077
▁qu	-2078
▁su	-2079
▁yp	-2080
▁ℤ,	-2081
▁ℤ}	-2082
GRID	-2083
HIGH	-2084
INGS	-2085
LISH	-2086
PATH	-2087
PLIT	-2088
RUCT	-2089
SENT	-2090
SPEC	-2091
SWAP	-2092
\}$.	-2093
quad	-2094
real	-2095
▁([[	-2096
▁CON	-2097
▁End	-2098
▁LCS	-2099
▁cha	-2100
▁its	-2101
▁rot	-2102
GROUP	-2103
PRINT	-2104
cdots	-2105
effic	-2106
empty	-2107
inear	-2108
iplic	-2109
lower	-2110
ssume	-2111
▁grid	-2112
▁zmod	-2113
DIAGON	-2114
ENDING	-2115
SINGLE	-2116
arable	-2117
cyclic	-2118
issing	-2119
simple	-2120
▁GIVEN	-2121
▁SPLIT	-2122
▁sylow	-2123
LONGEST	-2124
closure	-2125
▁simple	-2126
FUNCTION	-2127
SENTENCE	-2128
rimitive	-2129
subgroup	-2130
▁bounded	-2131
▁coeffic	-2132
ALGORITHM	-2133
RIGHTMOST	-2134
SOLUTIONS	-2135
▁POSITION	-2136
▁rightOne	-2137
▁rotation	-2138
▁REARRANGE	-2139
▁euclidean	-2140
▁submodule	-2141
▁uniformly	-2142
▁coefficient	-2143
▁collections	-2144
REPRESENTATION	-2145
!"	-2146
)]	-2147
AJ	-2148
AY	-2149
CR	-2150
Co	-2151
HA	-2152
IZ	-2153
SY	-2154
TY	-2155
VI	-2156
XX	-2157
YY	-2158
ch	-2159
cr	-2160
do	-2161
gg	-2162
hB	-2163
hE	-2164
hF	-2165
hP	-2166
hR	-2167
hU	-2168
hc	-2169
hz	-2170
je	-2171
ov	-2172
sa	-2173
sk	-2174
we	-2175
|$	-2176
}}	-2177
‖^	-2178
₂)	-2179
▁O	-2180
▁Z	-2181
▁π	-2182
▁σ	-2183
▁∩	-2184
','	-2185
',)	-2186
)=\	-2187
)})	-2188
.__	-2189
ABE	-2190
ACK	-2191
AIL	-2192
ANE	-2193
ANY	-2194
ATT	-2195
BEC	-2196
BRA	-2197
BUY	-2198
EDI	-2199
EFF	-2200
ELL	-2201
ERE	-2202
ERO	-2203
FIT	-2204
FLO	-2205
Ham	-2206
ICH	-2207
ILL	-2208
LCS	-2209
LET	-2210
MAX	-2211
MER	-2212
OFF	-2213
ORM	-2214
ORS	-2215
Occ	-2216
PAT	-2217
PUT	-2218
Pnt	-2219
RAY	-2220
SEG	-2221
SES	-2222
SON	-2223
Seq	-2224
TAS	-2225
TOF	-2226
URN	-2227
VEL	-2228
WIN	-2229
big	-2230
bra	-2231
ces	-2232
cos	-2233
des	-2234
edr	-2235
ers	-2236
gth	-2237
hpq	-2238
inc	-2239
iva	-2240
nam	-2241
oes	-2242
ore	-2243
ran	-2244
ssi	-2245
too	-2246
}^{	-2247
}_\	-2248
}}{	-2249
▁&&	-2250
▁/=	-2251
▁AM	-2252
▁AR	-2253
▁CE	-2254
▁CO	-2255
▁HM	-2256
▁QU	-2257
▁as	-2258
▁cu	-2259
▁eq	-2260
▁sq	-2261
▁tp	-2262
▁{(	-2263
▁∅)	-2264
ALPH	-2265
ALYS	-2266
ATES	-2267
BOID	-2268
COPY	-2269
ENDS	-2270
ENTH	-2271
From	-2272
GAME	-2273
GIVE	-2274
HAND	-2275
ICES	-2276
IFIC	-2277
INTS	-2278
ISIB	-2279
ISOS	-2280
NECT	-2281
OFIT	-2282
ONIC	-2283
OREM	-2284
OTAL	-2285
PASC	-2286
PENT	-2287
PLAY	-2288
PROG	-2289
REMO	-2290
RICT	-2291
SCHO	-2292
SELL	-2293
SIGN	-2294
STAR	-2295
Sing	-2296
TERN	-2297
VERT	-2298
WIND	-2299
ZERO	-2300
\|^{	-2301
ably	-2302
ance	-2303
arry	-2304
dist	-2305
eapq	-2306
etwe	-2307
hedr	-2308
inct	-2309
ined	-2310
ited	-2311
ivat	-2312
mask	-2313
ncat	-2314
olom	-2315
over	-2316
self	-2317
term	-2318
text	-2319
univ	-2320
zmod	-2321
▁$\|	-2322
▁DIV	-2323
▁EUL	-2324
▁FRI	-2325
▁LIS	-2326
▁MIN	-2327
▁MOD	-2328
▁PER	-2329
▁SUB	-2330
▁Sub	-2331
▁Sup	-2332
▁big	-2333
▁cps	-2334
▁now	-2335
▁pol	-2336
▁que	-2337
▁rad	-2338
▁rel	-2339
▁sor	-2340
▁ten	-2341
▁thi	-2342
▁tmp	-2343
ABETS	-2344
BOARD	-2345
BREAK	-2346
BUILD	-2347
CELES	-2348
CHANG	-2349
COINS	-2350
EDIAN	-2351
ERIES	-2352
FromR	-2353
IARRI	-2354
JUMPS	-2355
LEVEL	-2356
MOVES	-2357
Occur	-2358
PLACE	-2359
PLANE	-2360
PREVI	-2361
PYRAM	-2362
REPET	-2363
RIBED	-2364
SHARE	-2365
STEPS	-2366
SumSq	-2367
TASKS	-2368
THERE	-2369
THROW	-2370
TILES	-2371
TOTAL	-2372
TRANS	-2373
WHERE	-2374
WHICH	-2375
coeff	-2376
ctive	-2377
gebra	-2378
liers	-2379
state	-2380
tools	-2381
xAAAA	-2382
▁DICE	-2383
▁FORM	-2384
▁PAIR	-2385
▁TAIL	-2386
▁WAYS	-2387
▁back	-2388
▁expr	-2389
▁floa	-2390
▁iter	-2391
▁maxC	-2392
▁mpis	-2393
▁need	-2394
▁over	-2395
▁para	-2396
▁sets	-2397
▁span	-2398
▁unit	-2399
AGONAL	-2400
ALYSIS	-2401
BUYING	-2402
CUBOID	-2403
DUPLIC	-2404
EFFORT	-2405
ENTHES	-2406
LETTER	-2407
METRIC	-2408
OCCURS	-2409
PARITY	-2410
PERSON	-2411
PICKED	-2412
PROFIT	-2413
RAINTS	-2414
SCHOOL	-2415
SECOND	-2416
STRICT	-2417
Single	-2418
WINDOW	-2419
WINNER	-2420
countB	-2421
countS	-2422
etween	-2423
finset	-2424
hedral	-2425
inuous	-2426
number	-2427
setSum	-2428
succes	-2429
▁ARRAY	-2430
▁BREAK	-2431
▁FIRST	-2432
▁Input	-2433
▁PRINT	-2434
▁Sylow	-2435
▁TOTAL	-2436
▁carry	-2437
▁close	-2438
▁coins	-2439
▁field	-2440
▁floor	-2441
▁heapq	-2442
▁holom	-2443
▁insrt	-2444
▁lengt	-2445
▁lioes	-2446
▁queue	-2447
▁reven	-2448
▁round	-2449
APPEARS	-2450
BITONIC	-2451
CENDING	-2452
CONNECT	-2453
ENGLISH	-2454
INEQUAL	-2455
PAIRING	-2456
PASCALS	-2457
PATTERN	-2458
PICKING	-2459
PYRAMID	-2460
REMOVAL	-2461
SELLING	-2462
SeqDiff	-2463
THEOREM	-2464
VERTING	-2465
atively	-2466
ivative	-2467
parable	-2468
section	-2469
uniform	-2470
▁CHANGE	-2471
▁DOUBLE	-2472
▁LENGTH	-2473
▁PYTHON	-2474
▁STRING	-2475
▁concat	-2476
▁distSq	-2477
▁finset	-2478
▁linear	-2479
▁maxele	-2480
▁oddArr	-2481
▁output	-2482
▁parame	-2483
▁points	-2484
▁primes	-2485
▁rowSum	-2486
▁square	-2487
CIRCULAR	-2488
CONSTANT	-2489
DIVISORS	-2490
PREVIOUS	-2491
SEGMENTS	-2492
SPECIFIC	-2493
UNSORTED	-2494
contains	-2495
positive	-2496
▁CEILING	-2497
▁DECIMAL	-2498
▁DIVISIB	-2499
▁FINDING	-2500
▁FRIENDS	-2501
▁between	-2502
▁contain	-2503
▁counter	-2504
▁defined	-2505
▁longest	-2506
▁numbers	-2507
▁present	-2508
▁subsets	-2509
▁visited	-2510
ALPHABETS	-2511
CONSTRUCT	-2512
DIAGONALS	-2513
FromRight	-2514
INCREMENT	-2515
INTERSECT	-2516
ISOSCELES	-2517
OPERATION	-2518
Occurance	-2519
PARENTHES	-2520
RECURSION	-2521
REVERSING	-2522
TRANSFORM	-2523
TRIANGLES	-2524
xAAAAAAAA	-2525
▁MINIMIZE	-2526
▁POSSIBLE	-2527
▁distinct	-2528
▁isSingle	-2529
▁lowerPnt	-2530
▁outliers	-2531
▁radSumSq	-2532
DECREASING	-2533
INEQUALITY	-2534
INSERTIONS	-2535
OCTAHEDRON	-2536
RECTANGLES	-2537
REPETITIVE	-2538
continuous	-2539
▁DISTRIBUT	-2540
▁SEQUENCES	-2541
▁SubsetSum	-2542
▁countably	-2543
▁dimension	-2544
▁itertools	-2545
▁multiplic	-2546
▁subgroups	-2547
▁substring	-2548
ARRANGEMENT	-2549
CONSTRAINTS	-2550
PROGRESSION	-2551
▁curSeqDiff	-2552
▁relatively	-2553
PERMUTATIONS	-2554
▁RECURSIVELY	-2555
▁holomorphic	-2556
▁topological	-2557
CONCATENATION	-2558
▁DISTRIBUTING	-2559
▁DIVISIBILITY	-2560
▁intersection	-2561
▁posFromRight	-2562
▁outliersCount	-2563
▁characteristic	-2564
▁LEXICOGRAPHICAL	-2565
(-	-2566
*'	-2567
+\	-2568
..	-2569
Le	-2570
No	-2571
OV	-2572
SO	-2573
])	-2574
^(	-2575
af	-2576
hS	-2577
ha	-2578
hd	-2579
hm	-2580
hq	-2581
hu	-2582
ns	-2583
pt	-2584
sP	-2585
xy	-2586
≃*	-2587
▁γ	-2588
▁ε	-2589
▁↑	-2590
▁∘	-2591
▁≥	-2592
▁⊂	-2593
▁⊥	-2594
)),	-2595
)^{	-2596
CKE	-2597
EAN	-2598
EUC	-2599
LID	-2600
OID	-2601
any	-2602
aph	-2603
aus	-2604
bor	-2605
dor	-2606
eps	-2607
gau	-2608
gcd	-2609
her	-2610
hoo	-2611
ies	-2612
ily	-2613
ind	-2614
lip	-2615
mum	-2616
pad	-2617
pre	-2618
ses	-2619
sup	-2620
|$.	-2621
▁(@	-2622
▁(ℝ	-2623
▁(∃	-2624
▁(⋂	-2625
▁(𝓟	-2626
▁)|	-2627
▁.$	-2628
▁\{	-2629
▁ℂ}	-2630
▁ℝ,	-2631
▁≃*	-2632
▁⊤)	-2633
ABLE	-2634
ASIC	-2635
FLIP	-2636
FREE	-2637
HALF	-2638
LACE	-2639
LESS	-2640
Last	-2641
NEXT	-2642
Node	-2643
SUMS	-2644
TOGE	-2645
asis	-2646
cdot	-2647
dent	-2648
from	-2649
hood	-2650
idue	-2651
ilon	-2652
line	-2653
list	-2654
onic	-2655
perm	-2656
pmod	-2657
sPat	-2658
ster	-2659
}^{\	-2660
▁'*'	-2661
▁BIN	-2662
▁Len	-2663
▁STE	-2664
▁bad	-2665
▁clu	-2666
▁cou	-2667
▁sta	-2668
▁uni	-2669
▁{(|	-2670
▁ℂ),	-2671
CKETS	-2672
DOMIN	-2673
ENDED	-2674
IDENT	-2675
Level	-2676
MATCH	-2677
STATE	-2678
VALID	-2679
alled	-2680
dorff	-2681
eigen	-2682
ideal	-2683
ssian	-2684
sylow	-2685
▁Haus	-2686
▁flip	-2687
▁form	-2688
▁gold	-2689
▁have	-2690
▁leaf	-2691
▁lenn	-2692
▁many	-2693
▁minm	-2694
EUCLID	-2695
WEIGHT	-2696
bigcap	-2697
ighbor	-2698
▁BASIC	-2699
▁equiv	-2700
▁false	-2701
▁graph	-2702
▁minus	-2703
▁power	-2704
▁roots	-2705
▁whose	-2706
BITWISE	-2707
FINDING	-2708
MODULAR	-2709
REPLACE	-2710
algebra	-2711
bounded	-2712
epsilon	-2713
reasing	-2714
sPatter	-2715
totient	-2716
▁BINARY	-2717
▁STEINS	-2718
▁assume	-2719
▁called	-2720
▁cyclic	-2721
▁groups	-2722
▁keypad	-2723
BRACKETS	-2724
EXTENDED	-2725
IDENTITY	-2726
MAXIMIZE	-2727
MULTIPLY	-2728
TOGETHER	-2729
dihedral	-2730
gaussian	-2731
infinite	-2732
overline	-2733
solvable	-2734
▁cluster	-2735
▁converg	-2736
▁inverse	-2737
▁maximal	-2738
▁maximum	-2739
▁missing	-2740
▁residue	-2741
▁squares	-2742
▁sumLast	-2743
EUCLIDEAN	-2744
NodeCount	-2745
STATEMENT	-2746
nilpotent	-2747
▁ELEMENTS	-2748
▁complete	-2749
▁equation	-2750
▁generate	-2751
▁monotone	-2752
▁neighbor	-2753
▁quotient	-2754
▁solvable	-2755
CONTAINING	-2756
▁Hausdorff	-2757
▁generated	-2758
▁monotonic	-2759
▁nilpotent	-2760
▁primitive	-2761
▁separable	-2762
▁subspaces	-2763
eigenvalues	-2764
▁containing	-2765
▁eigenspace	-2766
▁increasing	-2767
▁infinitely	-2768
▁topologies	-2769
▁uncountable	-2770
▁neighborhood	-2771
▁sumLastLevel	-2772
▁leafNodeCount	-2773
▁rightOnesPatter	-2774
')	-2775
)+	-2776
)/	-2777
)|	-2778
*‖	-2779
+(	-2780
,$	-2781
,\	-2782
.$	-2783
.'	-2784
<\	-2785
AK	-2786
Ae	-2787
BJ	-2788
BN	-2789
Ci	-2790
DA	-2791
EM	-2792
FG	-2793
FO	-2794
FS	-2795
FT	-2796
Gl	-2797
Ho	-2798
IH	-2799
IJ	-2800
IX	-2801
Kf	-2802
Ko	-2803
LI	-2804
LP	-2805
LU	-2806
Lf	-2807
Mg	-2808
ND	-2809
NM	-2810
NX	-2811
OG	-2812
RF	-2813
SK	-2814
SM	-2815
Sb	-2816
St	-2817
Sy	-2818
UD	-2819
UE	-2820
UJ	-2821
VS	-2822
ZA	-2823
Zs	-2824
['	-2825
]$	-2826
_ℂ	-2827
aa	-2828
be	-2829
bu	-2830
cg	-2831
cs	-2832
fI	-2833
fa	-2834
fe	-2835
fo	-2836
fw	-2837
gZ	-2838
gy	-2839
hC	-2840
hj	-2841
hl	-2842
ng	-2843
pH	-2844
pl	-2845
py	-2846
ry	-2847
uE	-2848
uz	-2849
vR	-2850
vx	-2851
xF	-2852
{(	-2853
|>	-2854
|\	-2855
}/	-2856
▁?	-2857
▁Π	-2858
▁∫	-2859
▁⊓	-2860
▁⟪	-2861
'],	-2862
):=	-2863
)=(	-2864
)}$	-2865
)}{	-2866
ANH	-2867
ANK	-2868
APP	-2869
ASS	-2870
ASY	-2871
BAB	-2872
BAL	-2873
BEF	-2874
BES	-2875
BOO	-2876
BOT	-2877
BOU	-2878
BOX	-2879
BUS	-2880
Bit	-2881
CKY	-2882
CRE	-2883
CYL	-2884
Cim	-2885
CoQ	-2886
DOD	-2887
DON	-2888
DOT	-2889
EDU	-2890
EKS	-2891
ELO	-2892
EMP	-2893
EON	-2894
ERS	-2895
ETE	-2896
FAI	-2897
FIF	-2898
FIN	-2899
GAM	-2900
GEO	-2901
GLY	-2902
HAM	-2903
HAR	-2904
HAS	-2905
HAV	-2906
HCo	-2907
HEX	-2908
IEV	-2909
IPS	-2910
JOB	-2911
Kfd	-2912
KoY	-2913
LAP	-2914
LED	-2915
LEH	-2916
LIB	-2917
LIN	-2918
LIS	-2919
LOG	-2920
LOW	-2921
LPW	-2922
LUC	-2923
MEN	-2924
MIC	-2925
NCR	-2926
NIB	-2927
NOM	-2928
NTE	-2929
NXM	-2930
OBJ	-2931
ODE	-2932
OES	-2933
OGE	-2934
OME	-2935
OOG	-2936
OPT	-2937
OWN	-2938
OWS	-2939
PAS	-2940
PIV	-2941
PRI	-2942
RAN	-2943
RUS	-2944
SCO	-2945
SIM	-2946
SLO	-2947
SYM	-2948
Sbw	-2949
Sig	-2950
Syl	-2951
TOM	-2952
TOP	-2953
TOU	-2954
TOy	-2955
TRE	-2956
VEN	-2957
VES	-2958
VIS	-2959
WHI	-2960
Wro	-2961
YCK	-2962
YOU	-2963
ZED	-2964
ZsH	-2965
\|$	-2966
aad	-2967
aan	-2968
abl	-2969
abs	-2970
ars	-2971
bar	-2972
cop	-2973
dcr	-2974
deg	-2975
dep	-2976
dim	-2977
egr	-2978
ern	-2979
fwP	-2980
ggg	-2981
gru	-2982
hAB	-2983
hdF	-2984
hjn	-2985
huM	-2986
ify	-2987
ior	-2988
ker	-2989
lSU	-2990
lin	-2991
liz	-2992
nce	-2993
ntl	-2994
nto	-2995
ove	-2996
red	-2997
riv	-2998
saI	-2999
sin	-3000
sph	-3001
sym	-3002
tic	-3003
tra	-3004
ull	-3005
urn	-3006
ust	-3007
ute	-3008
vex	-3009
wed	-3010
yst	-3011
|=|	-3012
})$	-3013
}=\	-3014
}_{	-3015
⁻¹)	-3016
⁻¹*	-3017
₀))	-3018
▁"-	-3019
▁'_	-3020
▁(‖	-3021
▁(⋃	-3022
▁).	-3023
▁AN	-3024
▁De	-3025
▁FI	-3026
▁HE	-3027
▁HY	-3028
▁LO	-3029
▁NT	-3030
▁Rl	-3031
▁al	-3032
▁bw	-3033
▁do	-3034
▁dx	-3035
▁fw	-3036
▁hz	-3037
▁ll	-3038
▁mo	-3039
▁nu	-3040
▁pu	-3041
▁ve	-3042
▁ℂ,	-3043
▁ℚ,	-3044
▁ℚ}	-3045
⟫_ℂ	-3046
ACKS	-3047
ACQU	-3048
ADOV	-3049
ADRU	-3050
ALSO	-3051
ANBN	-3052
ANUJ	-3053
ARDO	-3054
ARDY	-3055
ARED	-3056
ARLY	-3057
ATOM	-3058
Aefo	-3059
BASE	-3060
BILL	-3061
BLES	-3062
BLOC	-3063
BYTE	-3064
CENT	-3065
CHOS	-3066
CIES	-3067
COIN	-3068
COLL	-3069
CUBE	-3070
Coun	-3071
DAYS	-3072
DEAD	-3073
DONT	-3074
ECTS	-3075
ENTI	-3076
ENTS	-3077
ERNS	-3078
FFIX	-3079
FIFO	-3080
FILL	-3081
FOLL	-3082
FRON	-3083
GETS	-3084
GlvR	-3085
HAVE	-3086
HOUR	-3087
High	-3088
IHns	-3089
INIS	-3090
INSC	-3091
IZZA	-3092
JOBS	-3093
JUMB	-3094
JUMP	-3095
KEYS	-3096
LATT	-3097
LEAN	-3098
LEFT	-3099
LIES	-3100
LOAD	-3101
LOOP	-3102
LOOR	-3103
MANH	-3104
MORE	-3105
MUTE	-3106
NERS	-3107
NODE	-3108
OCOL	-3109
OMES	-3110
ONCE	-3111
ORDS	-3112
ORFS	-3113
OTED	-3114
OUND	-3115
PAGE	-3116
PEAS	-3117
PLAT	-3118
PLUS	-3119
POLY	-3120
POSI	-3121
RAIL	-3122
REET	-3123
RESS	-3124
REST	-3125
RIUM	-3126
ROPE	-3127
ROWS	-3128
SHOR	-3129
SIAN	-3130
SKIP	-3131
STEM	-3132
STEP	-3133
STUD	-3134
SURF	-3135
TAKE	-3136
TANK	-3137
THEN	-3138
TILE	-3139
TION	-3140
TURN	-3141
TYPE	-3142
ULUS	-3143
UNDI	-3144
UPTO	-3145
WAIT	-3146
WHEN	-3147
WILL	-3148
ZCoQ	-3149
auch	-3150
cgfI	-3151
char	-3152
coun	-3153
ener	-3154
fact	-3155
fect	-3156
ffix	-3157
fine	-3158
gZFG	-3159
gend	-3160
hEvx	-3161
heap	-3162
hpqr	-3163
imal	-3164
info	-3165
ions	-3166
ipal	-3167
ipuE	-3168
itle	-3169
mhjn	-3170
olut	-3171
onab	-3172
otes	-3173
part	-3174
path	-3175
pper	-3176
prev	-3177
prod	-3178
rank	-3179
reat	-3180
rent	-3181
repl	-3182
riva	-3183
sauz	-3184
sses	-3185
tend	-3186
thIn	-3187
uler	-3188
ults	-3189
vert	-3190
ving	-3191
}-\{	-3192
▁'.'	-3193
▁(['	-3194
▁([-	-3195
▁GCD	-3196
▁HEX	-3197
▁HOR	-3198
▁MAK	-3199
▁Mat	-3200
▁NON	-3201
▁ONE	-3202
▁POL	-3203
▁SCH	-3204
▁STO	-3205
▁TEM	-3206
▁but	-3207
▁can	-3208
▁cpy	-3209
▁dcr	-3210
▁fam	-3211
▁gcd	-3212
▁hig	-3213
▁iff	-3214
▁inv	-3215
▁lcs	-3216
▁log	-3217
▁siz	-3218
▁tem	-3219
▁tre	-3220
▁try	-3221
▁vid	-3222
▁ℂ))	-3223
▁ℝ))	-3224
▁ℤ),	-3225
'],['	-3226
ACTLY	-3227
AGORE	-3228
ANTHE	-3229
APPLY	-3230
AREST	-3231
ARRII	-3232
ASYMP	-3233
ATEST	-3234
ATING	-3235
ATTAN	-3236
BOXES	-3237
CATCH	-3238
CONSI	-3239
CONTA	-3240
COVER	-3241
CUBES	-3242
CimLf	-3243
DEGRE	-3244
DODEC	-3245
DOMLY	-3246
EDULE	-3247
ELEME	-3248
EMPTY	-3249
ERIAN	-3250
ETECT	-3251
EVALU	-3252
EXPON	-3253
FENCE	-3254
FIXED	-3255
FLOAT	-3256
FLOOR	-3257
FORMS	-3258
FRONT	-3259
GAMES	-3260
GEEKS	-3261
IEVES	-3262
INEAR	-3263
INPUT	-3264
IRCLE	-3265
LINES	-3266
LUCAS	-3267
LUCKY	-3268
MATIC	-3269
MONIC	-3270
MOVED	-3271
MgTOy	-3272
NEIGH	-3273
OCTAL	-3274
OFFER	-3275
OOGLE	-3276
PATHS	-3277
PRISM	-3278
QUEUE	-3279
REASI	-3280
RULES	-3281
SCORE	-3282
SIGNS	-3283
SLOPE	-3284
SMALL	-3285
STACK	-3286
START	-3287
STICK	-3288
Sigma	-3289
Stack	-3290
Sylow	-3291
TETRA	-3292
TOTIC	-3293
TOUCH	-3294
TREES	-3295
UPPER	-3296
Wrong	-3297
aadaa	-3298
actly	-3299
atern	-3300
auchy	-3301
below	-3302
calar	-3303
depen	-3304
deque	-3305
dered	-3306
egral	-3307
erOne	-3308
float	-3309
iding	-3310
indow	-3311
ither	-3312
lizer	-3313
ntriv	-3314
order	-3315
ovfwP	-3316
pping	-3317
sigma	-3318
start	-3319
wedge	-3320
ystem	-3321
▁BELL	-3322
▁CASS	-3323
▁COIN	-3324
▁COST	-3325
▁DYCK	-3326
▁EVEN	-3327
▁FAST	-3328
▁HIGH	-3329
▁INTE	-3330
▁LEON	-3331
▁REMA	-3332
▁TURN	-3333
▁UGLY	-3334
▁ZECK	-3335
▁bije	-3336
▁coun	-3337
▁doub	-3338
▁enum	-3339
▁finR	-3340
▁hour	-3341
▁inje	-3342
▁into	-3343
▁isom	-3344
▁llap	-3345
▁maxm	-3346
▁more	-3347
▁msds	-3348
▁must	-3349
▁onto	-3350
▁oper	-3351
▁page	-3352
▁path	-3353
▁righ	-3354
▁self	-3355
▁tabl	-3356
▁turn	-3357
▁vect	-3358
▁vert	-3359
▁when	-3360
▁whil	-3361
ADOVAN	-3362
ALLELO	-3363
ALMOST	-3364
ANGLES	-3365
ANUJAN	-3366
APPEND	-3367
ATOMIC	-3368
BECOME	-3369
BEFORE	-3370
BLOCKS	-3371
BOTTOM	-3372
CANNOT	-3373
CHANGE	-3374
CHOCOL	-3375
CHOICE	-3376
CHORDS	-3377
CHOSEN	-3378
COUNTS	-3379
CRITER	-3380
DERING	-3381
DIVIDE	-3382
DOUBLE	-3383
ELLIPS	-3384
EQULIB	-3385
FINISH	-3386
HALVES	-3387
HAVING	-3388
ICEMEN	-3389
ICULAR	-3390
IMIZED	-3391
INTING	-3392
LARGER	-3393
LEHMER	-3394
LPWsaI	-3395
Length	-3396
MEDIAN	-3397
MINUTE	-3398
NOMIAL	-3399
OBTAIN	-3400
PASSES	-3401
PLACES	-3402
PLAYED	-3403
PLAYER	-3404
PROPER	-3405
QUADRU	-3406
RECTED	-3407
REMOVE	-3408
SERVER	-3409
SIGNED	-3410
SIMPLE	-3411
SPACES	-3412
STABLE	-3413
STACKS	-3414
STERNS	-3415
STREET	-3416
SUBTRA	-3417
SUFFIX	-3418
SYSTEM	-3419
UNLOCK	-3420
WAYBUS	-3421
ZEROES	-3422
buGlvR	-3423
centra	-3424
degree	-3425
energy	-3426
erated	-3427
faults	-3428
gendre	-3429
gruent	-3430
langle	-3431
length	-3432
prefix	-3433
rangle	-3434
remove	-3435
rivate	-3436
sphere	-3437
supset	-3438
▁Euler	-3439
▁FLOOR	-3440
▁FREQU	-3441
▁HARDY	-3442
▁HYPER	-3443
▁Integ	-3444
▁KthIn	-3445
▁LCSRe	-3446
▁LOWER	-3447
▁Osauz	-3448
▁PIZZA	-3449
▁PRIME	-3450
▁QUICK	-3451
▁ROUND	-3452
▁SPACE	-3453
▁STACK	-3454
▁Strin	-3455
▁basis	-3456
▁boole	-3457
▁clock	-3458
▁conde	-3459
▁empty	-3460
▁great	-3461
▁hzntl	-3462
▁inner	-3463
▁least	-3464
▁nonab	-3465
▁rearr	-3466
▁remov	-3467
▁respe	-3468
▁resul	-3469
▁retra	-3470
▁solut	-3471
▁stars	-3472
▁union	-3473
▁varia	-3474
AGOREAN	-3475
Aefoaan	-3476
BALANCE	-3477
BECOMES	-3478
BOOLEAN	-3479
BOURING	-3480
CENTRIC	-3481
CHANGES	-3482
CHOICES	-3483
CREATED	-3484
DEGREES	-3485
DERANGE	-3486
DISTANT	-3487
DIVIDED	-3488
DIVIDES	-3489
DYNAMIC	-3490
ENDORFS	-3491
EQUALLY	-3492
EXACTLY	-3493
EXPRESS	-3494
FOLLOWS	-3495
GRAMMER	-3496
HAMMING	-3497
HEXAGON	-3498
HIGHEST	-3499
INDEXES	-3500
INORDER	-3501
IZATION	-3502
JUMBLED	-3503
KoYIHns	-3504
LAPPING	-3505
LATTICE	-3506
LENGTHS	-3507
MATRIXI	-3508
MODULUS	-3509
MgTOyHo	-3510
NEAREST	-3511
NIBBLES	-3512
OBJECTS	-3513
OCOLATE	-3514
OCTAGON	-3515
ORDERED	-3516
PEASANT	-3517
PIVOTED	-3518
PUTTING	-3519
QUERIES	-3520
REMAINS	-3521
REVERSE	-3522
RUSSIAN	-3523
SCRIBED	-3524
SMALLER	-3525
STATION	-3526
SURFACE	-3527
SbwipuE	-3528
THIEVES	-3529
VISIBLE	-3530
WAITING	-3531
ZCoQhuM	-3532
coprime	-3533
ctively	-3534
gZFGZsH	-3535
heapify	-3536
incipal	-3537
indexes	-3538
isdigit	-3539
istitle	-3540
lSUhEvx	-3541
maximal	-3542
mhjnKfd	-3543
missing	-3544
partial	-3545
popleft	-3546
regular	-3547
replace	-3548
utative	-3549
▁('',),	-3550
▁Assume	-3551
▁CIRCLE	-3552
▁DECODE	-3553
▁DETECT	-3554
▁Define	-3555
▁EULERS	-3556
▁GOOGLE	-3557
▁HEIGHT	-3558
▁HashMa	-3559
▁MAKING	-3560
▁MEDIAN	-3561
▁PROBAB	-3562
▁STOOGE	-3563
▁System	-3564
▁TEMPLE	-3565
▁TILING	-3566
▁cCount	-3567
▁cannot	-3568
▁colsum	-3569
▁contin	-3570
▁convex	-3571
▁domain	-3572
▁either	-3573
▁ending	-3574
▁family	-3575
▁having	-3576
▁itself	-3577
▁maxHam	-3578
▁minute	-3579
▁prevDi	-3580
▁produc	-3581
▁rowsum	-3582
▁scalar	-3583
▁suffix	-3584
▁unique	-3585
▁window	-3586
ADDITION	-3587
ANALYSIS	-3588
ANTHESES	-3589
APPLYING	-3590
CHANGING	-3591
CONTAINS	-3592
CYLINDER	-3593
DEADLOCK	-3594
DECREASI	-3595
DELETION	-3596
DIATOMIC	-3597
DIVIDING	-3598
DOMINOES	-3599
EQUATION	-3600
GREATEST	-3601
HARMONIC	-3602
LINEARLY	-3603
MINIMIZE	-3604
OBTAINED	-3605
OPPOSITE	-3606
PENTAGON	-3607
PREORDER	-3608
RANDOMLY	-3609
ROTATING	-3610
SHORTEST	-3611
SKIPPING	-3612
STARTING	-3613
STEPPING	-3614
STRICTLY	-3615
STUDENTS	-3616
SWAPPING	-3617
TRAILING	-3618
UNSIGNED	-3619
VERSIONS	-3620
VERTICES	-3621
WEIGHTED	-3622
angement	-3623
erOneBit	-3624
function	-3625
iterated	-3626
negative	-3627
nonempty	-3628
ntrivial	-3629
▁CONVERT	-3630
▁HIGHWAY	-3631
▁HORNERS	-3632
▁INTEGER	-3633
▁MODULAR	-3634
▁MODULUS	-3635
▁PADOVAN	-3636
▁PERFECT	-3637
▁PERMUTE	-3638
▁PRODUCT	-3639
▁QUERIES	-3640
▁REPLACE	-3641
▁SQUARED	-3642
▁classes	-3643
▁currHam	-3644
▁current	-3645
▁denotes	-3646
▁exactly	-3647
▁finrank	-3648
▁indexes	-3649
▁longLen	-3650
▁mapping	-3651
▁maxsize	-3652
▁ordered	-3653
▁paramet	-3654
▁perfect	-3655
▁private	-3656
▁quatern	-3657
▁revenue	-3658
▁tenCoun	-3659
ACQUIRING	-3660
ADJACENTS	-3661
ASCENDING	-3662
BILLBOARD	-3663
BUILDINGS	-3664
COLLINEAR	-3665
COMPOSITE	-3666
CONNECTED	-3667
CRITERION	-3668
DECREMENT	-3669
DISTANCES	-3670
DUPLICATE	-3671
ELLIPSOID	-3672
ENTIATION	-3673
GEOMETRIC	-3674
INSCRIBED	-3675
INVERTING	-3676
MANHATTAN	-3677
OFFERINGS	-3678
OPERATING	-3679
OPTIMIZED	-3680
PARALLELO	-3681
PLATFORMS	-3682
POSITIONS	-3683
PYRAMIDAL	-3684
QUADRUPLE	-3685
RAMANUJAN	-3686
SYMMETRIC	-3687
UPPERCASE	-3688
dependent	-3689
primitive	-3690
▁ANALYSIS	-3691
▁BREAKING	-3692
▁CASSINIS	-3693
▁EULERIAN	-3694
▁FREQUENT	-3695
▁FUNCTION	-3696
▁KthIndex	-3697
▁LEONARDO	-3698
▁PAINTING	-3699
▁POSITIVE	-3700
▁SCHEDULE	-3701
▁addition	-3702
▁contains	-3703
▁dividing	-3704
▁divisors	-3705
▁gaussian	-3706
▁integral	-3707
▁invcount	-3708
▁legendre	-3709
▁nextHigh	-3710
▁operator	-3711
▁paramete	-3712
▁prevDiff	-3713
▁property	-3714
▁smallest	-3715
▁tenCount	-3716
ARITHMATIC	-3717
ASYMPTOTIC	-3718
CHOCOLATES	-3719
COMPLETELY	-3720
CONCENTRIC	-3721
DESCENDING	-3722
DUPLICATES	-3723
EQULIBRIUM	-3724
EVALUATION	-3725
EXPRESSION	-3726
HCoAefoaan	-3727
INVERSIONS	-3728
MATCHSTICK	-3729
PARTICULAR	-3730
PENTAGONAL	-3731
POLYNOMIAL	-3732
RAILWAYBUS	-3733
REVERSIBLE	-3734
SATISFYING	-3735
UNDIRECTED	-3736
derivative	-3737
▁CHOCOLATE	-3738
▁COMPOSITE	-3739
▁FIBONACCI	-3740
▁HEXAGONAL	-3741
▁HYPERCUBE	-3742
▁POLICEMEN	-3743
▁REMAINDER	-3744
▁SEARCHING	-3745
▁SUBARRAYS	-3746
▁congruent	-3747
▁different	-3748
▁functions	-3749
▁tempStack	-3750
CONCATENATE	-3751
CONDITIONAL	-3752
CONSIDERING	-3753
CONSTRUCTED	-3754
DIFFERENCES	-3755
DISTRIBUTED	-3756
FREQUENCIES	-3757
OFDIFFERENT	-3758
OVERLAPPING	-3759
PALINDROMIC	-3760
PARANTHESES	-3761
PARENTHESIS	-3762
REPLACEMENT	-3763
SUBTRACTION	-3764
TETRAHEDRON	-3765
centralizer	-3766
lSUhEvxcgfI	-3767
▁CONVERTING	-3768
▁DIFFERENCE	-3769
▁completely	-3770
▁derivative	-3771
▁difference	-3772
▁isomorphic	-3773
▁nonabelian	-3774
▁nontrivial	-3775
▁retraction	-3776
DERANGEMENTS	-3777
DISTRIBUTION	-3778
DODECAHEDRON	-3779
INTERSECTING	-3780
INTERSECTION	-3781
NEIGHBOURING	-3782
PARTITIONING	-3783
TRANSFORMING	-3784
gZFGZsHCimLf	-3785
▁PROBABILITY	-3786
▁PYTHAGOREAN	-3787
▁ZECKENDORFS	-3788
▁commutative	-3789
▁convergence	-3790
▁eigenvalues	-3791
▁eigenvector	-3792
CIRCUMSCRIBED	-3793
PARALLELOGRAM	-3794
▁SUBSEQUENCES	-3795
▁coefficients	-3796
▁commonLength	-3797
▁respectively	-3798
EXPONENTIATION	-3799
characteristic	-3800
▁monotonically	-3801
▁rearrangement	-3802
▁multiplication	-3803
▁multiplicative	-3804
PARENTHESIZATION	-3805
$\	-3806
'^	-3807
'‖	-3808
(⊤	-3809
)(	-3810
)*	-3811
)-	-3812
)<	-3813
)>	-3814
+$	-3815
+'	-3816
-|	-3817
/(	-3818
:=	-3819
:\	-3820
=|	-3821
@'	-3822
AV	-3823
EA	-3824
Io	-3825
Tr	-3826
WX	-3827
[ℂ	-3828
]]	-3829
]}	-3830
ai	-3831
ak	-3832
bi	-3833
ex	-3834
fH	-3835
fK	-3836
hD	-3837
hK	-3838
hN	-3839
hO	-3840
he	-3841
hh	-3842
ho	-3843
hr	-3844
jo	-3845
mk	-3846
mn	-3847
mu	-3848
mv	-3849
no	-3850
pm	-3851
po	-3852
rm	-3853
sI	-3854
sp	-3855
to	-3856
wi	-3857
xo	-3858
yx	-3859
{\	-3860
|)	-3861
||	-3862
}<	-3863
Če	-3864
‖)	-3865
‖=	-3866
₂}	-3867
▁W	-3868
▁⁅	-3869
▁∉	-3870
▁∪	-3871
▁𝓝	-3872
⟩}	-3873
$),	-3874
$).	-3875
'')	-3876
'',	-3877
)$:	-3878
))$	-3879
))^	-3880
),$	-3881
)-(	-3882
)\}	-3883
)_{	-3884
-\{	-3885
-\|	-3886
=-\	-3887
ANA	-3888
ARI	-3889
ARK	-3890
CEN	-3891
ILE	-3892
Icc	-3893
Ioi	-3894
KEY	-3895
LEX	-3896
LLS	-3897
NUM	-3898
OLD	-3899
Odd	-3900
PAD	-3901
PUB	-3902
SOR	-3903
TIN	-3904
WXN	-3905
[ℂ]	-3906
\{\	-3907
\|=	-3908
],(	-3909
]/(	-3910
]],	-3911
^{(	-3912
aff	-3913
aid	-3914
amp	-3915
ane	-3916
ary	-3917
ays	-3918
bdd	-3919
cir	-3920
cle	-3921
ctu	-3922
cup	-3923
div	-3924
ebi	-3925
erp	-3926
exp	-3927
fst	-3928
gen	-3929
gon	-3930
hAc	-3931
hAn	-3932
hHK	-3933
hMN	-3934
hMd	-3935
hST	-3936
hab	-3937
has	-3938
hcU	-3939
hfc	-3940
hfg	-3941
hmn	-3942
hpl	-3943
hpx	-3944
hxU	-3945
ice	-3946
ier	-3947
ima	-3948
ins	-3949
ird	-3950
isi	-3951
ism	-3952
isu	-3953
lhd	-3954
lim	-3955
lit	-3956
loc	-3957
mat	-3958
med	-3959
meq	-3960
mon	-3961
ned	-3962
nor	-3963
oci	-3964
rel	-3965
rix	-3966
rue	-3967
seq	-3968
snd	-3969
the	-3970
tri	-3971
uff	-3972
{\|	-3973
|$,	-3974
|,\	-3975
|-|	-3976
|<\	-3977
|=\	-3978
}(\	-3979
}),	-3980
}).	-3981
}-\	-3982
}:[	-3983
}:|	-3984
}}$	-3985
}}+	-3986
}}}	-3987
₁)}	-3988
₁})	-3989
▁$[	-3990
▁(⟨	-3991
▁(⨅	-3992
▁->	-3993
▁-\	-3994
▁/(	-3995
▁An	-3996
▁UN	-3997
▁[∀	-3998
▁fH	-3999
▁fK	-4000
▁mv	-4001
▁od	-4002
▁pm	-4003
▁rw	-4004
▁tu	-4005
▁zn	-4006
▁{\	-4007
▁{𝕜	-4008
▁|(	-4009
▁∃!	-4010
▁⊥)	-4011
▁𝕜]	-4012
▁𝕜}	-4013
))$,	-4014
))=\	-4015
)|,\	-4016
)}$.	-4017
*}.$	-4018
ALGE	-4019
CARD	-4020
DUCK	-4021
EACH	-4022
ERIC	-4023
ERIS	-4024
INTO	-4025
MINE	-4026
MPOR	-4027
SPAR	-4028
VARI	-4029
\|<\	-4030
\}$,	-4031
_{-\	-4032
affe	-4033
aire	-4034
ball	-4035
bitr	-4036
bmod	-4037
carr	-4038
cech	-4039
circ	-4040
colo	-4041
cong	-4042
ctly	-4043
eral	-4044
erwi	-4045
ever	-4046
gion	-4047
hing	-4048
ials	-4049
ibly	-4050
ides	-4051
ific	-4052
inus	-4053
iven	-4054
lete	-4055
lies	-4056
mean	-4057
medi	-4058
mply	-4059
nmid	-4060
nses	-4061
nter	-4062
null	-4063
omom	-4064
onsi	-4065
perp	-4066
poss	-4067
rans	-4068
sted	-4069
supp	-4070
tran	-4071
ubes	-4072
unit	-4073
}+\|	-4074
}-\|	-4075
}:\|	-4076
}=\{	-4077
}\}$	-4078
Čech	-4079
▁$=\	-4080
▁$\{	-4081
▁$||	-4082
▁''.	-4083
▁'+'	-4084
▁'-'	-4085
▁'@'	-4086
▁($\	-4087
▁((-	-4088
▁({⟨	-4089
▁(∑'	-4090
▁(⋂₀	-4091
▁-(-	-4092
▁...	-4093
▁Ico	-4094
▁Inf	-4095
▁MOB	-4096
▁Put	-4097
▁ROW	-4098
▁The	-4099
▁ass	-4100
▁bdd	-4101
▁cir	-4102
▁ide	-4103
▁ind	-4104
▁oth	-4105
▁ran	-4106
▁tak	-4107
▁use	-4108
▁⁅(⊤	-4109
▁ℚ),	-4110
▁ℚ)}	-4111
▁ℝ).	-4112
▁ℝ)]	-4113
)\}.$	-4114
ARKOV	-4115
AVOID	-4116
BRAIC	-4117
BRING	-4118
CELLS	-4119
DECOD	-4120
ENTER	-4121
POWXN	-4122
SWAPS	-4123
Table	-4124
ample	-4125
arily	-4126
basis	-4127
colon	-4128
ebius	-4129
erate	-4130
erior	-4131
ermut	-4132
gonal	-4133
image	-4134
iplet	-4135
isors	-4136
limit	-4137
ortho	-4138
osite	-4139
ounds	-4140
rices	-4141
simeq	-4142
split	-4143
stone	-4144
tends	-4145
unlhd	-4146
▁$-(-	-4147
▁$\{(	-4148
▁$\|\	-4149
▁([[-	-4150
▁Find	-4151
▁GOLD	-4152
▁Give	-4153
▁Math	-4154
▁More	-4155
▁Then	-4156
▁WILD	-4157
▁actu	-4158
▁also	-4159
▁ball	-4160
▁disc	-4161
▁disk	-4162
▁flag	-4163
▁full	-4164
▁line	-4165
▁maps	-4166
▁mini	-4167
▁most	-4168
▁norm	-4169
▁pair	-4170
▁rang	-4171
▁said	-4172
▁than	-4173
▁they	-4174
▁true	-4175
▁ways	-4176
▁ℕ)))	-4177
▁ℚ)))	-4178
CENSOR	-4179
CONTIN	-4180
EQUALS	-4181
ERISKS	-4182
GROUPS	-4183
HIGHER	-4184
KEYPAD	-4185
SPARSE	-4186
STRUCT	-4187
TEMPOR	-4188
^{*}.$	-4189
bigcup	-4190
cisely	-4191
domain	-4192
erwise	-4193
gether	-4194
hminus	-4195
isible	-4196
linear	-4197
mapsto	-4198
mathrm	-4199
matrix	-4200
monoid	-4201
normed	-4202
oretic	-4203
pressi	-4204
sInter	-4205
valued	-4206
varnot	-4207
verges	-4208
▁Baire	-4209
▁Consi	-4210
▁Stone	-4211
▁below	-4212
▁cubes	-4213
▁given	-4214
▁hence	-4215
▁homom	-4216
▁ident	-4217
▁imply	-4218
▁inclu	-4219
▁plane	-4220
▁secon	-4221
▁third	-4222
▁trans	-4223
▁twice	-4224
▁uniqu	-4225
▁upper	-4226
▁value	-4227
ANAGRAM	-4228
ENTRIES	-4229
NUMERIC	-4230
PUBLISH	-4231
SPECIAL	-4232
Triplet	-4233
bitrary	-4234
carrier	-4235
differe	-4236
gebraic	-4237
isupper	-4238
meaning	-4239
mediate	-4240
nomials	-4241
nsation	-4242
orphism	-4243
support	-4244
tendsto	-4245
ticular	-4246
variant	-4247
▁CENTER	-4248
▁Cauchy	-4249
▁DIAGON	-4250
▁LCSuff	-4251
▁MARKOV	-4252
▁MOBILE	-4253
▁UNIQUE	-4254
▁associ	-4255
▁bounds	-4256
▁cauchy	-4257
▁circle	-4258
▁differ	-4259
▁ideals	-4260
▁maxlen	-4261
▁monoid	-4262
▁namely	-4263
▁necess	-4264
▁nested	-4265
▁orders	-4266
▁permut	-4267
▁ration	-4268
▁region	-4269
▁simply	-4270
▁taking	-4271
▁unaffe	-4272
▁useOdd	-4273
DOMINANT	-4274
MATCHING	-4275
REPLACED	-4276
STRINGAB	-4277
VARIABLE	-4278
cofinite	-4279
complete	-4280
divisors	-4281
generate	-4282
interior	-4283
possibly	-4284
quotient	-4285
relindex	-4286
triangle	-4287
▁divides	-4288
▁example	-4289
▁extends	-4290
▁general	-4291
▁implies	-4292
▁moebius	-4293
▁spanned	-4294
▁suppose	-4295
ALGEBRAIC	-4296
APPEARING	-4297
ASTERISKS	-4298
DECODINGS	-4299
TEMPORARY	-4300
algebraic	-4301
euclidean	-4302
ification	-4303
multiplic	-4304
pressible	-4305
principal	-4306
separable	-4307
theoretic	-4308
uniformly	-4309
▁Consider	-4310
▁WILDCARD	-4311
▁actually	-4312
▁additive	-4313
▁closures	-4314
▁dihedral	-4315
▁diverges	-4316
▁identity	-4317
▁interior	-4318
▁inverses	-4319
▁linearly	-4320
▁mappings	-4321
▁matrices	-4322
▁moreover	-4323
▁multiple	-4324
▁solution	-4325
▁strictly	-4326
▁together	-4327
▁whenever	-4328
CONTINUOUS	-4329
orthogonal	-4330
varnothing	-4331
▁CONSTRUCT	-4332
▁algebraic	-4333
▁arbitrary	-4334
▁bijection	-4335
▁bijective	-4336
▁composite	-4337
▁condenses	-4338
▁constants	-4339
▁divisible	-4340
▁generates	-4341
▁goldTable	-4342
▁inclusion	-4343
▁injection	-4344
▁injective	-4345
▁invariant	-4346
▁otherwise	-4347
▁precisely	-4348
▁principal	-4349
▁rationals	-4350
▁rotations	-4351
▁solutions	-4352
independent	-4353
▁DIAGONALLY	-4354
▁comparable	-4355
▁complement	-4356
▁converging	-4357
▁eigenvalue	-4358
▁particular	-4359
▁primitives	-4360
▁quaternion	-4361
▁totalCount	-4362
▁transitive	-4363
▁unaffected	-4364
triangleleft	-4365
▁associative	-4366
▁expressible	-4367
▁independent	-4368
▁necessarily	-4369
▁permutation	-4370
▁polynomials	-4371
▁quaternions	-4372
LEXICOGRAPHIC	-4373
▁condensation	-4374
▁continuously	-4375
▁eigenvectors	-4376
▁homomorphism	-4377
▁intermediate	-4378
differentiable	-4379
multiplicative	-4380
▁neighborhoods	-4381
""	-4382
"-	-4383
$(	-4384
$)	-4385
$:	-4386
$=	-4387
$[	-4388
$|	-4389
&&	-4390
&=	-4391
'(	-4392
'*	-4393
'+	-4394
'-	-4395
'.	-4396
'@	-4397
']	-4398
'_	-4399
($	-4400
((	-4401
(@	-4402
([	-4403
({	-4404
(|	-4405
(‖	-4406
(ℝ	-4407
(∀	-4408
(∃	-4409
(∑	-4410
(⋂	-4411
(⋃	-4412
(⟨	-4413
(⨅	-4414
(𝓝	-4415
(𝓟	-4416
)_	-4417
**	-4418
*=	-4419
+.	-4420
+=	-4421
,'	-4422
,(	-4423
,[	-4424
-'	-4425
-(	-4426
--	-4427
-=	-4428
->	-4429
.*	-4430
._	-4431
//	-4432
/=	-4433
:[	-4434
:|	-4435
<<	-4436
<=	-4437
=(	-4438
=-	-4439
==	-4440
>=	-4441
>>	-4442
AH	-4443
Ac	-4444
Ad	-4445
Al	-4446
An	-4447
Ar	-4448
As	-4449
BA	-4450
BB	-4451
BI	-4452
BL	-4453
BR	-4454
BS	-4455
BT	-4456
Ba	-4457
Bi	-4458
Bo	-4459
CA	-4460
CC	-4461
CL	-4462
CQ	-4463
Ca	-4464
Cu	-4465
DC	-4466
DJ	-4467
DL	-4468
DO	-4469
DP	-4470
DR	-4471
DS	-4472
DY	-4473
De	-4474
EB	-4475
EE	-4476
EF	-4477
EG	-4478
EH	-4479
EI	-4480
EK	-4481
EL	-4482
EO	-4483
EP	-4484
EQ	-4485
ET	-4486
EU	-4487
EY	-4488
El	-4489
En	-4490
Eu	-4491
Ev	-4492
FA	-4493
FD	-4494
FE	-4495
FR	-4496
FU	-4497
Fa	-4498
Fi	-4499
Fo	-4500
Fr	-4501
GA	-4502
GC	-4503
GI	-4504
GL	-4505
GM	-4506
GN	-4507
GO	-4508
GR	-4509
GS	-4510
GT	-4511
GU	-4512
GZ	-4513
Gi	-4514
HB	-4515
HC	-4516
HI	-4517
HK	-4518
HM	-4519
HO	-4520
HR	-4521
HS	-4522
HT	-4523
HW	-4524
HY	-4525
Ha	-4526
He	-4527
Hi	-4528
Hn	-4529
IA	-4530
IE	-4531
II	-4532
IO	-4533
IQ	-4534
IU	-4535
Ic	-4536
If	-4537
JA	-4538
JE	-4539
JO	-4540
JU	-4541
KI	-4542
KO	-4543
KY	-4544
Kt	-4545
LA	-4546
LB	-4547
LC	-4548
LD	-4549
LF	-4550
LG	-4551
LM	-4552
LS	-4553
LT	-4554
LV	-4555
LW	-4556
La	-4557
MB	-4558
MF	-4559
MI	-4560
ML	-4561
MM	-4562
MN	-4563
MU	-4564
Md	-4565
Mi	-4566
Mo	-4567
NA	-4568
NB	-4569
NC	-4570
NG	-4571
NH	-4572
NI	-4573
NK	-4574
NL	-4575
NN	-4576
NP	-4577
NU	-4578
NV	-4579
NY	-4580
Na	-4581
Nu	-4582
OA	-4583
OE	-4584
OI	-4585
OO	-4586
OX	-4587
Oc	-4588
Od	-4589
Om	-4590
On	-4591
Os	-4592
Oy	-4593
PI	-4594
PP	-4595
PT	-4596
PU	-4597
PW	-4598
Pa	-4599
Pn	-4600
Pr	-4601
Pu	-4602
Qh	-4603
Qu	-4604
RC	-4605
RD	-4606
RG	-4607
RK	-4608
RL	-4609
RM	-4610
RN	-4611
RR	-4612
RS	-4613
RT	-4614
RV	-4615
RW	-4616
RY	-4617
Ri	-4618
Rl	-4619
SA	-4620
SF	-4621
SL	-4622
SQ	-4623
SR	-4624
SS	-4625
SW	-4626
Sh	-4627
Si	-4628
Su	-4629
TC	-4630
TD	-4631
TF	-4632
TL	-4633
TM	-4634
TR	-4635
TT	-4636
TU	-4637
Ta	-4638
Te	-4639
Th	-4640
Ty	-4641
UA	-4642
UF	-4643
UG	-4644
UI	-4645
UO	-4646
UY	-4647
Uh	-4648
VA	-4649
VO	-4650
WI	-4651
WN	-4652
WO	-4653
WS	-4654
Wr	-4655
Ws	-4656
XA	-4657
XE	-4658
XI	-4659
XM	-4660
XN	-4661
XO	-4662
XP	-4663
XT	-4664
Xo	-4665
YB	-4666
YC	-4667
YE	-4668
YI	-4669
YL	-4670
YM	-4671
YO	-4672
YP	-4673
YR	-4674
YT	-4675
ZC	-4676
ZF	-4677
ZM	-4678
ZZ	-4679
[-	-4680
[[	-4681
[∀	-4682
\}	-4683
].	-4684
]/	-4685
_'	-4686
aC	-4687
aI	-4688
au	-4689
av	-4690
ax	-4691
bC	-4692
ba	-4693
bf	-4694
bg	-4695
bl	-4696
bm	-4697
bo	-4698
br	-4699
bs	-4700
bw	-4701
by	-4702
cC	-4703
cU	-4704
ca	-4705
cn	-4706
cp	-4707
cu	-4708
cy	-4709
dA	-4710
dF	-4711
dS	-4712
dT	-4713
da	-4714
dc	-4715
dg	-4716
dj	-4717
dl	-4718
dp	-4719
dr	-4720
ds	-4721
dt	-4722
dx	-4723
eB	-4724
eC	-4725
eH	-4726
eO	-4727
eS	-4728
ea	-4729
eb	-4730
ec	-4731
ee	-4732
ef	-4733
ei	-4734
el	-4735
eo	-4736
ep	-4737
eq	-4738
eu	-4739
ev	-4740
ew	-4741
fN	-4742
fc	-4743
fd	-4744
fg	-4745
fi	-4746
fl	-4747
fs	-4748
fu	-4749
fy	-4750
gL	-4751
gT	-4752
gc	-4753
gf	-4754
gh	-4755
gi	-4756
gl	-4757
gm	-4758
gn	-4759
gs	-4760
gt	-4761
gu	-4762
hI	-4763
hb	-4764
hi	-4765
ht	-4766
hy	-4767
ia	-4768
ih	-4769
ij	-4770
im	-4771
iq	-4772
iu	-4773
iz	-4774
ja	-4775
jn	-4776
ju	-4777
kN	-4778
ki	-4779
ku	-4780
lC	-4781
lS	-4782
la	-4783
lb	-4784
lc	-4785
lg	-4786
lh	-4787
lp	-4788
lt	-4789
lv	-4790
mL	-4791
mR	-4792
mS	-4793
mb	-4794
mh	-4795
mi	-4796
ml	-4797
mo	-4798
ms	-4799
mx	-4800
nA	-4801
nC	-4802
nK	-4803
nL	-4804
nR	-4805
nX	-4806
nf	-4807
ni	-4808
nj	-4809
nk	-4810
nl	-4811
nm	-4812
nn	-4813
np	-4814
nr	-4815
nu	-4816
nv	-4817
nx	-4818
ny	-4819
oA	-4820
oQ	-4821
oY	-4822
oa	-4823
oc	-4824
oe	-4825
og	-4826
oi	-4827
ok	-4828
ox	-4829
pA	-4830
pC	-4831
pN	-4832
pP	-4833
pS	-4834
pa	-4835
pq	-4836
pu	-4837
px	-4838
qD	-4839
qr	-4840
rA	-4841
rB	-4842
rH	-4843
rO	-4844
rP	-4845
rS	-4846
rb	-4847
rc	-4848
rd	-4849
rf	-4850
rg	-4851
rh	-4852
rl	-4853
rn	-4854
rp	-4855
rs	-4856
rv	-4857
rw	-4858
sC	-4859
sE	-4860
sF	-4861
sH	-4862
sS	-4863
sc	-4864
sd	-4865
sh	-4866
sj	-4867
sl	-4868
sn	-4869
sq	-4870
sr	-4871
sw	-4872
sy	-4873
tA	-4874
tB	-4875
tH	-4876
tL	-4877
tM	-4878
tO	-4879
tS	-4880
ta	-4881
tb	-4882
td	-4883
ti	-4884
tl	-4885
tm	-4886
tp	-4887
tr	-4888
ts	-4889
tt	-4890
tu	-4891
tv	-4892
tw	-4893
uG	-4894
uM	-4895
ua	-4896
ud	-4897
uf	-4898
ug	-4899
ui	-4900
uo	-4901
vD	-4902
vP	-4903
vc	-4904
vf	-4905
vi	-4906
vo	-4907
wP	-4908
wS	-4909
wa	-4910
wh	-4911
wo	-4912
ws	-4913
xA	-4914
xB	-4915
xC	-4916
xD	-4917
xH	-4918
xL	-4919
xP	-4920
xR	-4921
xS	-4922
xU	-4923
xa	-4924
xc	-4925
xe	-4926
xi	-4927
xl	-4928
xm	-4929
xp	-4930
xs	-4931
xv	-4932
yC	-4933
yH	-4934
yS	-4935
yl	-4936
yn	-4937
yp	-4938
yr	-4939
zm	-4940
zn	-4941
{*	-4942
{-	-4943
{⟨	-4944
{𝕜	-4945
|(	-4946
|,	-4947
|-	-4948
|<	-4949
|^	-4950
}.	-4951
¹)	-4952
¹*	-4953
⁅(	-4954
₀)	-4955
₁)	-4956
₁}	-4957
ℂ)	-4958
ℂ,	-4959
ℂ]	-4960
ℂ}	-4961
ℕ)	-4962
ℕ,	-4963
ℕ}	-4964
ℚ)	-4965
ℚ,	-4966
ℚ}	-4967
ℝ)	-4968
ℝ,	-4969
ℝ}	-4970
ℤ)	-4971
ℤ,	-4972
ℤ}	-4973
∃!	-4974
∅)	-4975
∑'	-4976
⊤)	-4977
⊥)	-4978
⋂₀	-4979
▁!	-4980
▁≃	-4981
⟫_	-4982
𝕜]	-4983
𝕜}	-4984
'__	-4985
))=	-4986
)|,	-4987
*}.	-4988
+\|	-4989
:\|	-4990
=\{	-4991
AAA	-4992
ACC	-4993
ACH	-4994
ADL	-4995
ADO	-4996
ADR	-4997
AGO	-4998
AIC	-4999
AIN	-5000
AIR	-5001
AIT	-5002
AKE	-5003
ALF	-5004
ALI	-5005
ALM	-5006
ALP	-5007
ALU	-5008
ALV	-5009
ALY	-5010
AMM	-5011
ANB	-5012
ANC	-5013
ANN	-5014
ANO	-5015
ANU	-5016
ARA	-5017
ARC	-5018
ARG	-5019
ARL	-5020
ARM	-5021
ARR	-5022
ARS	-5023
ART	-5024
ASC	-5025
ASI	-5026
ASK	-5027
ATC	-5028
ATF	-5029
ATH	-5030
ATI	-5031
ATO	-5032
ATR	-5033
AVE	-5034
AYS	-5035
Aef	-5036
All	-5037
BAR	-5038
BED	-5039
BER	-5040
BET	-5041
BIL	-5042
BRE	-5043
BRI	-5044
BSE	-5045
BST	-5046
BTA	-5047
BUT	-5048
Boo	-5049
CAL	-5050
CAR	-5051
CAS	-5052
CCU	-5053
CED	-5054
CEM	-5055
CES	-5056
CHE	-5057
CIM	-5058
CIR	-5059
CLE	-5060
COE	-5061
COP	-5062
COU	-5063
COV	-5064
CQU	-5065
CRI	-5066
CSR	-5067
CSu	-5068
CTA	-5069
CTE	-5070
CTI	-5071
CTL	-5072
CTS	-5073
CUB	-5074
CUL	-5075
CUM	-5076
CoA	-5077
Cou	-5078
DAL	-5079
DED	-5080
DEG	-5081
DEN	-5082
DIA	-5083
DIC	-5084
DIF	-5085
DIN	-5086
DIT	-5087
DOR	-5088
DOU	-5089
DRO	-5090
DUC	-5091
DUP	-5092
DYN	-5093
EAD	-5094
EAP	-5095
EAR	-5096
EAS	-5097
EAT	-5098
ECA	-5099
ECI	-5100
ECO	-5101
ECU	-5102
EDR	-5103
EIL	-5104
EIN	-5105
ELE	-5106
EMA	-5107
EMO	-5108
ENA	-5109
ENC	-5110
ENS	-5111
EPL	-5112
EPS	-5113
ERA	-5114
ERC	-5115
ERF	-5116
ERL	-5117
ERM	-5118
ERN	-5119
ERT	-5120
ERY	-5121
ESC	-5122
ESE	-5123
ESI	-5124
ETH	-5125
ETW	-5126
EUL	-5127
EXA	-5128
Ele	-5129
End	-5130
Eul	-5131
Eve	-5132
FEN	-5133
FFI	-5134
FGZ	-5135
FIB	-5136
FIC	-5137
FIR	-5138
FLI	-5139
FOU	-5140
FRE	-5141
FUN	-5142
Fin	-5143
For	-5144
Fro	-5145
GAT	-5146
GEB	-5147
GEE	-5148
GEM	-5149
GES	-5150
GHB	-5151
GHE	-5152
GIN	-5153
GIT	-5154
GIV	-5155
GLE	-5156
GNS	-5157
GON	-5158
GOR	-5159
GTH	-5160
GUL	-5161
Glv	-5162
HAN	-5163
HAT	-5164
HCi	-5165
HEC	-5166
HEI	-5167
HEN	-5168
HER	-5169
HIC	-5170
HIN	-5171
HON	-5172
HOR	-5173
HOU	-5174
HST	-5175
HWA	-5176
Hig	-5177
Hns	-5178
IAN	-5179
IAR	-5180
IAT	-5181
ICA	-5182
ICT	-5183
ICU	-5184
IDD	-5185
IDE	-5186
IEN	-5187
IES	-5188
IFO	-5189
IMA	-5190
IMP	-5191
INA	-5192
INI	-5193
INN	-5194
INO	-5195
INP	-5196
INU	-5197
INV	-5198
IOU	-5199
IPL	-5200
IQU	-5201
IRS	-5202
IRW	-5203
ISF	-5204
ISI	-5205
ISK	-5206
ISO	-5207
ISS	-5208
IST	-5209
ITI	-5210
ITW	-5211
IUM	-5212
IVI	-5213
IVO	-5214
IZE	-5215
IZZ	-5216
Int	-5217
JAC	-5218
JAN	-5219
KED	-5220
KEN	-5221
KET	-5222
KIN	-5223
KIP	-5224
KOV	-5225
LAN	-5226
LAT	-5227
LEA	-5228
LEF	-5229
LEN	-5230
LER	-5231
LEV	-5232
LIC	-5233
LIT	-5234
LLB	-5235
LLE	-5236
LLI	-5237
LLO	-5238
LLY	-5239
LON	-5240
LOO	-5241
LOP	-5242
LUM	-5243
LWA	-5244
MAD	-5245
MAK	-5246
MAN	-5247
MAR	-5248
MED	-5249
MES	-5250
MID	-5251
MME	-5252
MPO	-5253
MPT	-5254
MUL	-5255
MUM	-5256
Mat	-5257
NAL	-5258
NAM	-5259
NAR	-5260
NAT	-5261
NCT	-5262
NDI	-5263
NED	-5264
NEI	-5265
NEN	-5266
NEX	-5267
NIC	-5268
NIN	-5269
NIT	-5270
NSE	-5271
NSI	-5272
NTS	-5273
Nat	-5274
Num	-5275
OAD	-5276
OAR	-5277
OAT	-5278
OBI	-5279
OBS	-5280
OCK	-5281
OCO	-5282
ODU	-5283
OFD	-5284
OIC	-5285
OIN	-5286
OLE	-5287
OLL	-5288
OLU	-5289
OML	-5290
OMP	-5291
ONA	-5292
ONC	-5293
OND	-5294
ONN	-5295
ONS	-5296
ONT	-5297
ONV	-5298
OOL	-5299
OOR	-5300
ORF	-5301
ORI	-5302
ORN	-5303
OST	-5304
OTH	-5305
OUB	-5306
OUC	-5307
OUN	-5308
Ome	-5309
Osa	-5310
PAI	-5311
PEC	-5312
PEN	-5313
PHA	-5314
PIC	-5315
PIN	-5316
PLA	-5317
PLU	-5318
POL	-5319
PON	-5320
POR	-5321
POW	-5322
PPL	-5323
PPO	-5324
PSO	-5325
PTO	-5326
Pat	-5327
Pre	-5328
Pri	-5329
Put	-5330
QUA	-5331
QUI	-5332
QUL	-5333
Qhu	-5334
Que	-5335
RAC	-5336
RAH	-5337
RAI	-5338
RAP	-5339
RAR	-5340
REC	-5341
RED	-5342
REF	-5343
REM	-5344
REN	-5345
REO	-5346
REQ	-5347
REV	-5348
RID	-5349
RIE	-5350
RIG	-5351
RII	-5352
RIM	-5353
RIN	-5354
RIP	-5355
RIS	-5356
RIT	-5357
ROB	-5358
ROD	-5359
ROF	-5360
ROG	-5361
ROM	-5362
ROO	-5363
ROP	-5364
ROU	-5365
RRA	-5366
RSE	-5367
RST	-5368
Rig	-5369
SAN	-5370
SCE	-5371
SCH	-5372
SEA	-5373
SEC	-5374
SED	-5375
SEL	-5376
SEN	-5377
SEQ	-5378
SIB	-5379
SIC	-5380
SID	-5381
SIN	-5382
SIS	-5383
SIT	-5384
SIV	-5385
SIZ	-5386
SPA	-5387
SSE	-5388
SSI	-5389
STA	-5390
STR	-5391
STS	-5392
STU	-5393
SUC	-5394
SUF	-5395
SUR	-5396
SUh	-5397
SWA	-5398
Sin	-5399
Squ	-5400
Sub	-5401
TAC	-5402
TAL	-5403
TAN	-5404
TAR	-5405
TAT	-5406
TED	-5407
TEG	-5408
TEL	-5409
TEM	-5410
TET	-5411
THA	-5412
THI	-5413
THM	-5414
THO	-5415
THR	-5416
THS	-5417
TIC	-5418
TIP	-5419
TIT	-5420
TIV	-5421
TLY	-5422
TMO	-5423
TON	-5424
TOO	-5425
TOR	-5426
TRO	-5427
TTO	-5428
TUR	-5429
TWE	-5430
Ter	-5431
UAL	-5432
UAR	-5433
UAT	-5434
UBL	-5435
UCK	-5436
UCL	-5437
UCT	-5438
UEN	-5439
UER	-5440
UES	-5441
UIC	-5442
UIL	-5443
ULE	-5444
ULO	-5445
ULT	-5446
ULU	-5447
UMF	-5448
UMP	-5449
UMS	-5450
UND	-5451
UNI	-5452
UNL	-5453
UOU	-5454
UPS	-5455
URA	-5456
UTT	-5457
VAN	-5458
VAR	-5459
VED	-5460
VIN	-5461
WED	-5462
WHO	-5463
WIC	-5464
WIL	-5465
WOR	-5466
Wsa	-5467
XED	-5468
XES	-5469
XIC	-5470
XIM	-5471
YED	-5472
YER	-5473
YIH	-5474
YIN	-5475
YMP	-5476
YNO	-5477
YPA	-5478
YPE	-5479
YRA	-5480
YST	-5481
YTE	-5482
ZAT	-5483
ZCo	-5484
ZEC	-5485
ZER	-5486
ZFG	-5487
\|<	-5488
],[	-5489
__'	-5490
_{-	-5491
adS	-5492
ada	-5493
adj	-5494
aic	-5495
alC	-5496
alg	-5497
ali	-5498
alp	-5499
amb	-5500
ani	-5501
ank	-5502
ann	-5503
ans	-5504
api	-5505
apq	-5506
ara	-5507
arl	-5508
ase	-5509
ass	-5510
ati	-5511
atr	-5512
att	-5513
auc	-5514
aul	-5515
ave	-5516
bac	-5517
bas	-5518
bin	-5519
bli	-5520
bly	-5521
bou	-5522
bre	-5523
brr	-5524
bse	-5525
bst	-5526
but	-5527
car	-5528
cat	-5529
cce	-5530
ceb	-5531
cec	-5532
cei	-5533
cgf	-5534
cib	-5535
cip	-5536
cit	-5537
ckN	-5538
cla	-5539
cli	-5540
clo	-5541
coe	-5542
cof	-5543
col	-5544
com	-5545
cor	-5546
cou	-5547
cre	-5548
cst	-5549
cte	-5550
cti	-5551
ctl	-5552
cur	-5553
cyc	-5554
ddA	-5555
deC	-5556
dea	-5557
dec	-5558
def	-5559
den	-5560
deq	-5561
dig	-5562
dih	-5563
din	-5564
dis	-5565
dit	-5566
dli	-5567
dot	-5568
dou	-5569
dow	-5570
dre	-5571
dst	-5572
duc	-5573
dul	-5574
ean	-5575
ear	-5576
ece	-5577
ech	-5578
ect	-5579
ede	-5580
edg	-5581
eed	-5582
een	-5583
eft	-5584
eig	-5585
eit	-5586
ell	-5587
elo	-5588
ely	-5589
emp	-5590
enC	-5591
enc	-5592
ene	-5593
eng	-5594
enn	-5595
ens	-5596
erO	-5597
erP	-5598
era	-5599
erc	-5600
erf	-5601
erg	-5602
eri	-5603
ert	-5604
erw	-5605
eth	-5606
etr	-5607
etw	-5608
euc	-5609
eue	-5610
eve	-5611
ext	-5612
eyp	-5613
eys	-5614
fNo	-5615
fer	-5616
ffe	-5617
ffi	-5618
fic	-5619
fie	-5620
foa	-5621
for	-5622
fre	-5623
fro	-5624
ftM	-5625
fun	-5626
gTO	-5627
gat	-5628
geb	-5629
ger	-5630
gic	-5631
gin	-5632
gio	-5633
gra	-5634
gre	-5635
gul	-5636
hEv	-5637
han	-5638
har	-5639
hed	-5640
hen	-5641
hic	-5642
hig	-5643
hil	-5644
hin	-5645
his	-5646
hog	-5647
hol	-5648
hou	-5649
iam	-5650
ian	-5651
iat	-5652
ica	-5653
ici	-5654
icl	-5655
ict	-5656
icu	-5657
ide	-5658
idt	-5659
idu	-5660
iel	-5661
iff	-5662
igc	-5663
ige	-5664
igi	-5665
igm	-5666
ilo	-5667
imp	-5668
inR	-5669
inX	-5670
ini	-5671
inm	-5672
inn	-5673
inr	-5674
inv	-5675
ipa	-5676
ipl	-5677
ipu	-5678
iqu	-5679
irc	-5680
ire	-5681
isc	-5682
isd	-5683
ise	-5684
isj	-5685
isk	-5686
iss	-5687
iti	-5688
itl	-5689
itr	-5690
ius	-5691
ize	-5692
kin	-5693
lag	-5694
lan	-5695
lar	-5696
lat	-5697
leO	-5698
lef	-5699
lel	-5700
lem	-5701
ler	-5702
let	-5703
lex	-5704
lge	-5705
lia	-5706
lie	-5707
lio	-5708
lis	-5709
lla	-5710
lle	-5711
lly	-5712
loa	-5713
loo	-5714
lse	-5715
lso	-5716
lue	-5717
lva	-5718
mLf	-5719
mag	-5720
man	-5721
mas	-5722
meg	-5723
mes	-5724
mhj	-5725
mil	-5726
mis	-5727
mly	-5728
mmo	-5729
mol	-5730
mor	-5731
mpS	-5732
mpa	-5733
mpl	-5734
mpo	-5735
mpt	-5736
mut	-5737
nKf	-5738
nal	-5739
nca	-5740
nct	-5741
nde	-5742
nds	-5743
neB	-5744
neS	-5745
nes	-5746
nic	-5747
nil	-5748
nin	-5749
nio	-5750
nit	-5751
niv	-5752
nly	-5753
nne	-5754
nse	-5755
nsi	-5756
nst	-5757
ntA	-5758
ntB	-5759
ntS	-5760
nta	-5761
nte	-5762
ntr	-5763
nts	-5764
num	-5765
nva	-5766
nve	-5767
oat	-5768
oce	-5769
ode	-5770
odu	-5771
oin	-5772
old	-5773
oll	-5774
ols	-5775
olu	-5776
oma	-5777
ome	-5778
omi	-5779
omo	-5780
omp	-5781
onL	-5782
ona	-5783
ond	-5784
ont	-5785
ood	-5786
ook	-5787
ool	-5788
oor	-5789
ope	-5790
opl	-5791
opr	-5792
orf	-5793
orh	-5794
orn	-5795
orp	-5796
ors	-5797
ory	-5798
osF	-5799
oss	-5800
ost	-5801
ote	-5802
oth	-5803
oti	-5804
oto	-5805
oub	-5806
ovf	-5807
owS	-5808
pac	-5809
par	-5810
pat	-5811
pen	-5812
per	-5813
pin	-5814
pis	-5815
ple	-5816
pli	-5817
pol	-5818
por	-5819
pot	-5820
ppe	-5821
ppo	-5822
pri	-5823
pse	-5824
pst	-5825
qDi	-5826
qua	-5827
qui	-5828
quo	-5829
rac	-5830
ral	-5831
ram	-5832
rar	-5833
rat	-5834
rce	-5835
rcl	-5836
rde	-5837
rec	-5838
ref	-5839
reg	-5840
ren	-5841
reo	-5842
rep	-5843
req	-5844
res	-5845
ret	-5846
ria	-5847
rid	-5848
rie	-5849
rig	-5850
ril	-5851
rin	-5852
rip	-5853
rit	-5854
rod	-5855
rof	-5856
ron	-5857
roo	-5858
rop	-5859
rou	-5860
rph	-5861
rri	-5862
rro	-5863
rry	-5864
rse	-5865
rst	-5866
sat	-5867
sau	-5868
seO	-5869
sec	-5870
sed	-5871
sel	-5872
sen	-5873
sep	-5874
ser	-5875
sil	-5876
sio	-5877
sis	-5878
sit	-5879
sly	-5880
sol	-5881
sor	-5882
sou	-5883
srt	-5884
ssa	-5885
sse	-5886
sso	-5887
ssu	-5888
stL	-5889
stS	-5890
sta	-5891
ste	-5892
sti	-5893
str	-5894
sts	-5895
tac	-5896
tal	-5897
tat	-5898
thI	-5899
til	-5900
tin	-5901
tio	-5902
tip	-5903
tli	-5904
tor	-5905
tot	-5906
tre	-5907
tse	-5908
tva	-5909
uGl	-5910
ual	-5911
uat	-5912
ube	-5913
ubg	-5914
ubm	-5915
ubs	-5916
uci	-5917
uct	-5918
ude	-5919
uen	-5920
ueu	-5921
umL	-5922
umS	-5923
umb	-5924
umm	-5925
ump	-5926
uni	-5927
unl	-5928
uou	-5929
upp	-5930
urS	-5931
ura	-5932
ure	-5933
urr	-5934
usd	-5935
use	-5936
uss	-5937
uta	-5938
uti	-5939
vab	-5940
vaf	-5941
vat	-5942
veC	-5943
vec	-5944
ved	-5945
ves	-5946
vid	-5947
vin	-5948
vis	-5949
vol	-5950
win	-5951
wip	-5952
wit	-5953
wor	-5954
wos	-5955
xAA	-5956
xam	-5957
xcg	-5958
xcl	-5959
xer	-5960
xle	-5961
xsi	-5962
xtH	-5963
xtb	-5964
xva	-5965
yHo	-5966
ylo	-5967
zer	-5968
znt	-5969
{*}	-5970
|^{	-5971
}.$	-5972
⁅(⊤	-5973
ℂ))	-5974
ℂ),	-5975
ℕ))	-5976
ℚ))	-5977
ℚ),	-5978
ℤ),	-5979
▁$=	-5980
▁'(	-5981
▁')	-5982
▁'*	-5983
▁'+	-5984
▁'.	-5985
▁'@	-5986
▁($	-5987
▁-(	-5988
▁..	-5989
▁AD	-5990
▁Ad	-5991
▁Ar	-5992
▁As	-5993
▁BA	-5994
▁BE	-5995
▁Ba	-5996
▁CA	-5997
▁CI	-5998
▁Ca	-5999
▁Co	-6000
▁DE	-6001
▁DI	-6002
▁DY	-6003
▁EV	-6004
▁FA	-6005
▁FL	-6006
▁FO	-6007
▁FR	-6008
▁FU	-6009
▁Fa	-6010
▁GC	-6011
▁GO	-6012
▁Gi	-6013
▁HI	-6014
▁HO	-6015
▁Ha	-6016
▁IN	-6017
▁Ic	-6018
▁Kt	-6019
▁LA	-6020
▁LC	-6021
▁LE	-6022
▁LI	-6023
▁Le	-6024
▁MA	-6025
▁ME	-6026
▁MI	-6027
▁MO	-6028
▁MU	-6029
▁Mo	-6030
▁NE	-6031
▁No	-6032
▁ON	-6033
▁PI	-6034
▁PO	-6035
▁PY	-6036
▁Pr	-6037
▁RO	-6038
▁SC	-6039
▁SE	-6040
▁SM	-6041
▁SO	-6042
▁SP	-6043
▁SQ	-6044
▁SU	-6045
▁SW	-6046
▁Sh	-6047
▁Sy	-6048
▁TA	-6049
▁TE	-6050
▁TI	-6051
▁TO	-6052
▁TR	-6053
▁TU	-6054
▁Tr	-6055
▁Ty	-6056
▁UG	-6057
▁WA	-6058
▁WR	-6059
▁aC	-6060
▁ad	-6061
▁au	-6062
▁bC	-6063
▁cC	-6064
▁ca	-6065
▁ce	-6066
▁ci	-6067
▁cn	-6068
▁cp	-6069
▁cs	-6070
▁cy	-6071
▁dc	-6072
▁ea	-6073
▁eu	-6074
▁fi	-6075
▁fr	-6076
▁fu	-6077
▁ga	-6078
▁gc	-6079
▁he	-6080
▁ho	-6081
▁im	-6082
▁ir	-6083
▁ja	-6084
▁ke	-6085
▁la	-6086
▁lc	-6087
▁lp	-6088
▁me	-6089
▁ml	-6090
▁mu	-6091
▁nC	-6092
▁nt	-6093
▁nx	-6094
▁om	-6095
▁ot	-6096
▁ou	-6097
▁pC	-6098
▁pN	-6099
▁pP	-6100
▁pe	-6101
▁ra	-6102
▁ri	-6103
▁ro	-6104
▁sa	-6105
▁sh	-6106
▁sp	-6107
▁sy	-6108
▁ta	-6109
▁ti	-6110
▁tm	-6111
▁tr	-6112
▁ug	-6113
▁up	-6114
▁va	-6115
▁vo	-6116
▁wa	-6117
▁yC	-6118
▁zm	-6119
ABIL	-6120
ACED	-6121
ACES	-6122
ACTL	-6123
AGRA	-6124
AHED	-6125
AIND	-6126
AINT	-6127
ALAN	-6128
ALIN	-6129
ALIT	-6130
ALLE	-6131
ALLO	-6132
ALMO	-6133
AMES	-6134
AMON	-6135
ANAL	-6136
ANNO	-6137
ANTH	-6138
APPL	-6139
ARAN	-6140
AREN	-6141
ARGE	-6142
ARIN	-6143
ARIS	-6144
ARIT	-6145
ARSE	-6146
ASAN	-6147
ASKS	-6148
ATCH	-6149
ATEM	-6150
ATEN	-6151
ATIC	-6152
ATIS	-6153
ATIV	-6154
ATOR	-6155
ATRI	-6156
AXIM	-6157
AYED	-6158
AYER	-6159
Arra	-6160
BBLE	-6161
BECO	-6162
BETS	-6163
BINO	-6164
BITW	-6165
BOAR	-6166
BRAC	-6167
BREA	-6168
BSOL	-6169
BUIL	-6170
CALC	-6171
CALS	-6172
CCUR	-6173
CELE	-6174
CELL	-6175
CEND	-6176
CENS	-6177
CHAN	-6178
CHEC	-6179
CHED	-6180
CHOR	-6181
CHST	-6182
COMM	-6183
CONC	-6184
CONN	-6185
CONS	-6186
CONT	-6187
CONV	-6188
CORE	-6189
CREA	-6190
CRIB	-6191
CSRe	-6192
CTAG	-6193
CTAL	-6194
CTAN	-6195
CTED	-6196
CTER	-6197
CTOR	-6198
CUBO	-6199
CURR	-6200
CURS	-6201
CoAe	-6202
DENT	-6203
DESC	-6204
DIAG	-6205
DIAT	-6206
DING	-6207
DIRE	-6208
DIVI	-6209
DUPL	-6210
Dict	-6211
EARE	-6212
ECIF	-6213
ECIM	-6214
ECOD	-6215
ECOM	-6216
ECRE	-6217
EGER	-6218
EGRA	-6219
ELLI	-6220
EMOV	-6221
ENAT	-6222
ENCI	-6223
ENCY	-6224
ENGL	-6225
ENTA	-6226
ENTD	-6227
ENTE	-6228
ENTR	-6229
EQUL	-6230
ERAN	-6231
ERAT	-6232
ERED	-6233
EREN	-6234
ERIM	-6235
ERIN	-6236
ERSI	-6237
ESIS	-6238
ESIZ	-6239
EUCL	-6240
EVAL	-6241
EVES	-6242
EXAG	-6243
EXES	-6244
EXIC	-6245
FACE	-6246
FFER	-6247
FFIC	-6248
FFOR	-6249
FGZs	-6250
FORE	-6251
FTER	-6252
Face	-6253
GERS	-6254
GETH	-6255
GHER	-6256
GING	-6257
GITS	-6258
GRAP	-6259
GRES	-6260
HALV	-6261
HARE	-6262
HATT	-6263
HCim	-6264
HECK	-6265
HING	-6266
HMER	-6267
HWAY	-6268
IBIL	-6269
IBON	-6270
IBRI	-6271
ICAL	-6272
ICAT	-6273
ICEM	-6274
ICEN	-6275
ICUL	-6276
IDAL	-6277
IDED	-6278
IDES	-6279
IENT	-6280
IGHB	-6281
ILDC	-6282
ILIT	-6283
IMES	-6284
IMET	-6285
IMIZ	-6286
INAL	-6287
INAN	-6288
INAR	-6289
INDE	-6290
INDO	-6291
INED	-6292
INES	-6293
INGA	-6294
INIM	-6295
ININ	-6296
INOR	-6297
INSE	-6298
INSI	-6299
IONS	-6300
IOUS	-6301
ISKS	-6302
ISOR	-6303
ITEM	-6304
ITHM	-6305
ITIV	-6306
ITON	-6307
IVEL	-6308
IVIS	-6309
IVOT	-6310
JECT	-6311
KETS	-6312
KING	-6313
LATE	-6314
LEME	-6315
LENG	-6316
LETE	-6317
LEVE	-6318
LIND	-6319
LING	-6320
LLBO	-6321
LLER	-6322
LLIN	-6323
LLOW	-6324
LOAT	-6325
LOPE	-6326
LUCK	-6327
LWAY	-6328
LYNO	-6329
Leng	-6330
MAIN	-6331
MEDI	-6332
METR	-6333
MIAL	-6334
MMET	-6335
MPAR	-6336
MPLE	-6337
MPOS	-6338
MPTY	-6339
Math	-6340
MgTO	-6341
NDOM	-6342
NGEM	-6343
NUMB	-6344
OCKS	-6345
OCTA	-6346
ODEC	-6347
ODES	-6348
ODUL	-6349
OFDI	-6350
OGLE	-6351
OGRA	-6352
OICE	-6353
OLIC	-6354
OLUM	-6355
OLUT	-6356
OMET	-6357
OMIC	-6358
OMIN	-6359
OMLY	-6360
ONAC	-6361
ONAL	-6362
ONAR	-6363
ONEN	-6364
ONGE	-6365
ONIN	-6366
ONSE	-6367
ONST	-6368
ORAR	-6369
ORIG	-6370
ORTE	-6371
OSCE	-6372
OSEN	-6373
OSIT	-6374
OTTO	-6375
OUCH	-6376
OVAL	-6377
OVAN	-6378
OWER	-6379
OneB	-6380
Ones	-6381
PEAR	-6382
PEND	-6383
PERC	-6384
PERF	-6385
PERM	-6386
PERS	-6387
PHIC	-6388
PLAN	-6389
POIN	-6390
POWX	-6391
PPER	-6392
PPOS	-6393
PRES	-6394
PREV	-6395
PROB	-6396
PROD	-6397
PROP	-6398
PTOT	-6399
PYRA	-6400
QUAD	-6401
QUAL	-6402
QUAR	-6403
QUAT	-6404
QUEN	-6405
QUER	-6406
QUEU	-6407
QUIC	-6408
RACT	-6409
RAIC	-6410
RAIN	-6411
REAN	-6412
REAT	-6413
RECU	-6414
REES	-6415
REFI	-6416
REOR	-6417
REPL	-6418
RIAN	-6419
RIEN	-6420
RIGH	-6421
RIME	-6422
RINT	-6423
RISM	-6424
RITE	-6425
RIXI	-6426
RODU	-6427
ROFI	-6428
ROME	-6429
RONT	-6430
ROUP	-6431
RRAY	-6432
RVER	-6433
Righ	-6434
SEAR	-6435
SECT	-6436
SECU	-6437
SERI	-6438
SETS	-6439
SFOR	-6440
SSES	-6441
STAC	-6442
STAN	-6443
STAT	-6444
STER	-6445
STIC	-6446
STIN	-6447
STRA	-6448
STRE	-6449
STRI	-6450
STRU	-6451
SUBT	-6452
SUFF	-6453
SUhE	-6454
SumS	-6455
TECT	-6456
TEIN	-6457
TELY	-6458
TEMP	-6459
TEND	-6460
THAG	-6461
THEO	-6462
THES	-6463
THOD	-6464
THON	-6465
THOU	-6466
THRE	-6467
THRO	-6468
TICE	-6469
TIMI	-6470
TIPL	-6471
TIVE	-6472
TRAH	-6473
TRAN	-6474
TRIP	-6475
TTER	-6476
TWIC	-6477
Term	-6478
UCAS	-6479
UENT	-6480
UJAN	-6481
ULAT	-6482
ULER	-6483
ULES	-6484
UMER	-6485
UMPS	-6486
UNCT	-6487
UNSI	-6488
UPLE	-6489
UTED	-6490
VALI	-6491
VERA	-6492
VERF	-6493
VERL	-6494
VERS	-6495
VERY	-6496
VING	-6497
VOID	-6498
WAPP	-6499
WAPS	-6500
WAYB	-6501
WHER	-6502
WHIC	-6503
WILD	-6504
XACT	-6505
XICO	-6506
YING	-6507
YNAM	-6508
YPER	-6509
YSIS	-6510
YSTE	-6511
ZECK	-6512
],['	-6513
^{*}	-6514
aceb	-6515
aces	-6516
acit	-6517
acti	-6518
adaa	-6519
afNo	-6520
ages	-6521
alar	-6522
alge	-6523
alph	-6524
ambd	-6525
amel	-6526
ames	-6527
amet	-6528
amil	-6529
angl	-6530
anin	-6531
anne	-6532
ants	-6533
apif	-6534
aram	-6535
ares	-6536
aril	-6537
arit	-6538
arly	-6539
arri	-6540
arti	-6541
ashM	-6542
astL	-6543
ated	-6544
ater	-6545
ates	-6546
athb	-6547
athc	-6548
athr	-6549
atic	-6550
atio	-6551
ator	-6552
atri	-6553
atur	-6554
ault	-6555
ausd	-6556
avaf	-6557
back	-6558
beli	-6559
bers	-6560
bigc	-6561
bius	-6562
bool	-6563
borh	-6564
boun	-6565
buGl	-6566
call	-6567
ccur	-6568
cent	-6569
ciat	-6570
clic	-6571
clos	-6572
clus	-6573
crea	-6574
cree	-6575
crem	-6576
cter	-6577
ctio	-6578
ddit	-6579
dens	-6580
dequ	-6581
dere	-6582
deri	-6583
ders	-6584
diat	-6585
ding	-6586
eded	-6587
edge	-6588
efin	-6589
egin	-6590
eigh	-6591
elow	-6592
ende	-6593
ends	-6594
enva	-6595
eore	-6596
erci	-6597
eren	-6598
ergy	-6599
erme	-6600
erse	-6601
erty	-6602
etur	-6603
evel	-6604
ffer	-6605
ffic	-6606
fint	-6607
geth	-6608
ging	-6609
give	-6610
gral	-6611
grap	-6612
gree	-6613
grid	-6614
grou	-6615
hang	-6616
high	-6617
hile	-6618
hour	-6619
iang	-6620
ible	-6621
icat	-6622
icie	-6623
icul	-6624
ider	-6625
idth	-6626
ifor	-6627
ighb	-6628
ighe	-6629
igma	-6630
igne	-6631
incl	-6632
inde	-6633
inft	-6634
ingl	-6635
ings	-6636
inin	-6637
init	-6638
inse	-6639
ints	-6640
inty	-6641
inue	-6642
inut	-6643
inva	-6644
ique	-6645
ircl	-6646
isit	-6647
ists	-6648
iter	-6649
itio	-6650
iveC	-6651
ivel	-6652
ives	-6653
ivis	-6654
ject	-6655
king	-6656
lace	-6657
ldot	-6658
lect	-6659
lele	-6660
leme	-6661
leng	-6662
lian	-6663
lice	-6664
lide	-6665
lier	-6666
llap	-6667
lled	-6668
loat	-6669
lock	-6670
loor	-6671
lued	-6672
lues	-6673
mage	-6674
maxi	-6675
minu	-6676
mmon	-6677
mmut	-6678
modu	-6679
mpar	-6680
mpis	-6681
mpli	-6682
mpor	-6683
mpos	-6684
nKfd	-6685
nals	-6686
nded	-6687
ndex	-6688
ndin	-6689
ndre	-6690
ndst	-6691
nect	-6692
nemp	-6693
nilp	-6694
nion	-6695
noid	-6696
nomi	-6697
none	-6698
noth	-6699
nput	-6700
nteg	-6701
ntin	-6702
ntit	-6703
ntri	-6704
nver	-6705
odul	-6706
olle	-6707
olon	-6708
olum	-6709
olyn	-6710
omor	-6711
onal	-6712
onot	-6713
oole	-6714
ools	-6715
oots	-6716
ople	-6717
opol	-6718
opri	-6719
orde	-6720
oreo	-6721
oret	-6722
orff	-6723
orma	-6724
orme	-6725
orte	-6726
orth	-6727
osit	-6728
otal	-6729
otat	-6730
otie	-6731
oton	-6732
oups	-6733
ovfw	-6734
ower	-6735
pect	-6736
pend	-6737
phic	-6738
phis	-6739
ping	-6740
plic	-6741
port	-6742
prim	-6743
prin	-6744
pset	-6745
psil	-6746
psto	-6747
qual	-6748
quat	-6749
quen	-6750
quiv	-6751
quot	-6752
raic	-6753
rali	-6754
rame	-6755
rang	-6756
rary	-6757
read	-6758
reak	-6759
reci	-6760
rect	-6761
redu	-6762
reme	-6763
remo	-6764
requ	-6765
ress	-6766
revD	-6767
revP	-6768
reve	-6769
righ	-6770
rint	-6771
roce	-6772
rodu	-6773
romR	-6774
rong	-6775
rphi	-6776
rrat	-6777
rrow	-6778
sInt	-6779
seco	-6780
sect	-6781
sequ	-6782
seri	-6783
setS	-6784
sets	-6785
side	-6786
sime	-6787
simp	-6788
sour	-6789
spli	-6790
ssar	-6791
ssib	-6792
ssum	-6793
stac	-6794
star	-6795
stat	-6796
stem	-6797
stic	-6798
stin	-6799
stit	-6800
stre	-6801
tack	-6802
tely	-6803
tern	-6804
ters	-6805
tert	-6806
ther	-6807
time	-6808
tive	-6809
tput	-6810
tric	-6811
tura	-6812
uall	-6813
ubgr	-6814
ubli	-6815
ubse	-6816
ubst	-6817
ucce	-6818
uchy	-6819
ulat	-6820
ulti	-6821
umps	-6822
unif	-6823
uran	-6824
urre	-6825
ussi	-6826
utat	-6827
utio	-6828
varn	-6829
vate	-6830
vect	-6831
venA	-6832
venu	-6833
verg	-6834
verl	-6835
vial	-6836
vxcg	-6837
ween	-6838
wise	-6839
wsum	-6840
xArr	-6841
xtva	-6842
zntl	-6843
▁$-(	-6844
▁(''	-6845
▁ARE	-6846
▁Arr	-6847
▁Ass	-6848
▁BAS	-6849
▁BRE	-6850
▁Bai	-6851
▁CAL	-6852
▁CAS	-6853
▁CEN	-6854
▁CHO	-6855
▁CIR	-6856
▁COU	-6857
▁Con	-6858
▁Cop	-6859
▁DIC	-6860
▁DOU	-6861
▁DYN	-6862
▁EFF	-6863
▁Eul	-6864
▁FIN	-6865
▁FIR	-6866
▁FLO	-6867
▁FOR	-6868
▁FRE	-6869
▁FUN	-6870
▁Fal	-6871
▁Fin	-6872
▁GIV	-6873
▁GOL	-6874
▁HAR	-6875
▁Has	-6876
▁INT	-6877
▁Kth	-6878
▁LEN	-6879
▁LON	-6880
▁MAR	-6881
▁MAX	-6882
▁MED	-6883
▁MUL	-6884
▁NEX	-6885
▁NUM	-6886
▁Osa	-6887
▁PAD	-6888
▁PIZ	-6889
▁Pro	-6890
▁Que	-6891
▁REC	-6892
▁ROU	-6893
▁SOR	-6894
▁SPA	-6895
▁SPL	-6896
▁SWA	-6897
▁Sto	-6898
▁TIL	-6899
▁TOT	-6900
▁TUR	-6901
▁WAY	-6902
▁abe	-6903
▁act	-6904
▁ant	-6905
▁arb	-6906
▁bac	-6907
▁bas	-6908
▁bet	-6909
▁bij	-6910
▁bou	-6911
▁box	-6912
▁bre	-6913
▁cap	-6914
▁car	-6915
▁cen	-6916
▁che	-6917
▁clo	-6918
▁coe	-6919
▁com	-6920
▁cub	-6921
▁cyc	-6922
▁dia	-6923
▁dif	-6924
▁dih	-6925
▁dim	-6926
▁dpA	-6927
▁eac	-6928
▁eig	-6929
▁eit	-6930
▁ele	-6931
▁eli	-6932
▁emp	-6933
▁euc	-6934
▁eve	-6935
▁exa	-6936
▁exi	-6937
▁exp	-6938
▁ext	-6939
▁fal	-6940
▁fib	-6941
▁fie	-6942
▁fil	-6943
▁fir	-6944
▁fli	-6945
▁fou	-6946
▁fro	-6947
▁fun	-6948
▁gau	-6949
▁gol	-6950
▁gre	-6951
▁hav	-6952
▁hen	-6953
▁hol	-6954
▁hom	-6955
▁ima	-6956
▁inf	-6957
▁inj	-6958
▁inn	-6959
▁inp	-6960
▁isE	-6961
▁isS	-6962
▁iso	-6963
▁lea	-6964
▁leg	-6965
▁lim	-6966
▁lin	-6967
▁lio	-6968
▁man	-6969
▁mis	-6970
▁moe	-6971
▁mul	-6972
▁nam	-6973
▁nex	-6974
▁nil	-6975
▁non	-6976
▁nor	-6977
▁nth	-6978
▁nxt	-6979
▁ome	-6980
▁ont	-6981
▁ove	-6982
▁pNe	-6983
▁pag	-6984
▁pat	-6985
▁plu	-6986
▁pri	-6987
▁rat	-6988
▁rea	-6989
▁reg	-6990
▁rig	-6991
▁rin	-6992
▁roo	-6993
▁rou	-6994
▁sam	-6995
▁sel	-6996
▁sep	-6997
▁sig	-6998
▁sma	-6999
▁sol	-7000
▁sou	-7001
▁squ	-7002
▁suc	-7003
▁sym	-7004
▁tab	-7005
▁tex	-7006
▁tha	-7007
▁tog	-7008
▁tru	-7009
▁tur	-7010
▁twi	-7011
▁una	-7012
▁unc	-7013
▁unl	-7014
▁uns	-7015
▁upp	-7016
▁ver	-7017
▁whe	-7018
▁who	-7019
▁win	-7020
▁wit	-7021
▁wor	-7022
▁zer	-7023
▁ℕ))	-7024
▁ℚ))	-7025
ACTOR	-7026
ADJAC	-7027
ADLOC	-7028
AGRAM	-7029
AKING	-7030
ALIND	-7031
ALITY	-7032
ALLER	-7033
ALLOW	-7034
ANCES	-7035
ANGES	-7036
ANGUL	-7037
ANNOT	-7038
ARACT	-7039
ARALL	-7040
ARGER	-7041
ARING	-7042
ARMON	-7043
ARRAN	-7044
ASANT	-7045
ASING	-7046
ASSIN	-7047
ASTER	-7048
ATFOR	-7049
ATTER	-7050
ATURA	-7051
AXIMI	-7052
BARRA	-7053
BECOM	-7054
BINAR	-7055
BITON	-7056
BONAC	-7057
BOOLE	-7058
BOTTO	-7059
BSEQU	-7060
BTAIN	-7061
CHEDU	-7062
CHING	-7063
CHOIC	-7064
CHOOL	-7065
CHORD	-7066
COLAT	-7067
COLUM	-7068
CONNE	-7069
CONTI	-7070
CTANG	-7071
CTING	-7072
CoQhu	-7073
DECRE	-7074
DELET	-7075
DERAN	-7076
DUCTS	-7077
EARRA	-7078
ECIAL	-7079
ECKEN	-7080
ECREA	-7081
EDRON	-7082
EIGHT	-7083
EMPLE	-7084
ENATE	-7085
ENCES	-7086
ENDOR	-7087
ENTAG	-7088
ENTAT	-7089
ENTED	-7090
ENTEN	-7091
ENTIT	-7092
ENTRI	-7093
ERENT	-7094
ERING	-7095
ERION	-7096
EROES	-7097
ETHER	-7098
EXACT	-7099
EXICO	-7100
FFORT	-7101
FGZsH	-7102
FIBON	-7103
FYING	-7104
GEBRA	-7105
GHEST	-7106
GHTED	-7107
GHTMO	-7108
GHWAY	-7109
GMENT	-7110
GRAMM	-7111
GREAT	-7112
GREES	-7113
GUOUS	-7114
HCoAe	-7115
IABLE	-7116
IBBLE	-7117
ICALL	-7118
ICATE	-7119
ICKED	-7120
IDDLE	-7121
IDEAN	-7122
IDING	-7123
IGHER	-7124
ILLBO	-7125
ILWAY	-7126
IMPLE	-7127
INANT	-7128
INARY	-7129
INCRE	-7130
INDOW	-7131
INEQU	-7132
INGLE	-7133
INIMI	-7134
INING	-7135
INISH	-7136
INNER	-7137
INORD	-7138
INSER	-7139
INTEG	-7140
INTER	-7141
INUTE	-7142
INVER	-7143
IONAL	-7144
IONSU	-7145
IRCUL	-7146
IRCUM	-7147
ISION	-7148
ISONS	-7149
ITHER	-7150
ITHME	-7151
ITHMS	-7152
ITHOU	-7153
ITING	-7154
IVELY	-7155
Index	-7156
KEYPA	-7157
KoYIH	-7158
LACED	-7159
LIBRI	-7160
LLINE	-7161
LLING	-7162
LLOWS	-7163
LOCKS	-7164
LPWsa	-7165
LYNOM	-7166
MAIND	-7167
MAINS	-7168
MATRI	-7169
MENTD	-7170
MOVAL	-7171
MPTOT	-7172
NALYS	-7173
NEARE	-7174
NIQUE	-7175
NSORT	-7176
NUMER	-7177
OBILE	-7178
ODING	-7179
OFILL	-7180
OGRAM	-7181
OLICE	-7182
OLUME	-7183
OLUTE	-7184
OMIAL	-7185
OMPOS	-7186
ONALL	-7187
ONARD	-7188
ONENT	-7189
ONING	-7190
ONVER	-7191
OPPOS	-7192
ORARY	-7193
OREAN	-7194
ORITH	-7195
ORNER	-7196
ORTED	-7197
OUNTS	-7198
OVERL	-7199
PACES	-7200
PAIRW	-7201
PARAN	-7202
PAREN	-7203
PARIS	-7204
PARIT	-7205
PARSE	-7206
PERAT	-7207
PERCU	-7208
PERIM	-7209
PHABE	-7210
PIVOT	-7211
POSIT	-7212
POSSI	-7213
PPING	-7214
PREFI	-7215
PRODU	-7216
PROFI	-7217
PSOID	-7218
PrevP	-7219
QUALL	-7220
QUARE	-7221
QUENT	-7222
QUERI	-7223
QUICK	-7224
RAINT	-7225
RAISE	-7226
RAMAN	-7227
RAMID	-7228
REATE	-7229
REORD	-7230
REPRE	-7231
REQUI	-7232
RFACE	-7233
RIANG	-7234
RIBUT	-7235
RIEND	-7236
RIMAL	-7237
RINGA	-7238
RINGS	-7239
RITER	-7240
ROGRA	-7241
ROTAT	-7242
RRING	-7243
RSIVE	-7244
RUPLE	-7245
RUSSI	-7246
Right	-7247
SATIS	-7248
SCALS	-7249
SCRIB	-7250
SECON	-7251
SECUT	-7252
SFORM	-7253
SIDER	-7254
SIONS	-7255
SOLUT	-7256
SQUAR	-7257
STREE	-7258
STRIC	-7259
SUBSE	-7260
SUBST	-7261
SYSTE	-7262
Sbwip	-7263
TAINS	-7264
TEGRA	-7265
TEINS	-7266
THESE	-7267
THIEV	-7268
TICES	-7269
TIPLE	-7270
TOOGE	-7271
TOyHo	-7272
TRAIL	-7273
TRING	-7274
TWEEN	-7275
UDENT	-7276
ULATE	-7277
ULERI	-7278
UMBLE	-7279
UMFER	-7280
UNLOC	-7281
UNSIG	-7282
UTING	-7283
VERFL	-7284
VERSE	-7285
VERSI	-7286
VIOUS	-7287
WAYBU	-7288
XIMUM	-7289
YTHAG	-7290
YTHON	-7291
acity	-7292
actif	-7293
adSum	-7294
aking	-7295
ambda	-7296
amete	-7297
amily	-7298
angem	-7299
aning	-7300
annot	-7301
aract	-7302
arame	-7303
asing	-7304
astLe	-7305
atter	-7306
boole	-7307
bound	-7308
braic	-7309
cally	-7310
cible	-7311
cisel	-7312
close	-7313
closu	-7314
clust	-7315
cofin	-7316
ctors	-7317
ddArr	-7318
deals	-7319
dexes	-7320
diate	-7321
dimen	-7322
eapif	-7323
ected	-7324
edral	-7325
egers	-7326
endre	-7327
endst	-7328
epsil	-7329
erent	-7330
erime	-7331
erist	-7332
etric	-7333
eturn	-7334
eucli	-7335
fault	-7336
ffere	-7337
finit	-7338
foaan	-7339
gence	-7340
goldT	-7341
hange	-7342
hminu	-7343
hogon	-7344
hoods	-7345
iTerm	-7346
iable	-7347
icall	-7348
ients	-7349
igcap	-7350
igher	-7351
ightM	-7352
ightO	-7353
ighta	-7354
ights	-7355
igits	-7356
incip	-7357
inclu	-7358
indep	-7359
inder	-7360
infin	-7361
ingle	-7362
ining	-7363
inite	-7364
inset	-7365
inter	-7366
inuou	-7367
ioman	-7368
ional	-7369
ircle	-7370
istit	-7371
itely	-7372
ively	-7373
lSUhE	-7374
langl	-7375
leOcc	-7376
licat	-7377
malle	-7378
mathc	-7379
mathr	-7380
matri	-7381
ments	-7382
meter	-7383
morph	-7384
mpact	-7385
mport	-7386
nding	-7387
ntain	-7388
nticl	-7389
ntinu	-7390
ntity	-7391
oints	-7392
ologi	-7393
ology	-7394
olsum	-7395
olume	-7396
omain	-7397
omial	-7398
onLen	-7399
onemp	-7400
onoid	-7401
ookup	-7402
opolo	-7403
ormed	-7404
ormly	-7405
orner	-7406
orted	-7407
otent	-7408
otone	-7409
ouble	-7410
ountA	-7411
ountB	-7412
ountS	-7413
ounta	-7414
ously	-7415
outli	-7416
overl	-7417
owSum	-7418
owsum	-7419
paces	-7420
panne	-7421
phere	-7422
place	-7423
pport	-7424
prese	-7425
princ	-7426
qDiff	-7427
quenc	-7428
queue	-7429
raliz	-7430
refix	-7431
reque	-7432
resen	-7433
reser	-7434
ressi	-7435
retur	-7436
riang	-7437
rimes	-7438
riple	-7439
rrang	-7440
rrays	-7441
rredu	-7442
ruent	-7443
seOdd	-7444
sider	-7445
signe	-7446
solva	-7447
ssoci	-7448
stdli	-7449
succe	-7450
tring	-7451
ually	-7452
ublic	-7453
ubset	-7454
ultip	-7455
upper	-7456
upset	-7457
ution	-7458
uxArr	-7459
vable	-7460
varia	-7461
venue	-7462
xsize	-7463
xtval	-7464
▁BREA	-7465
▁CALC	-7466
▁CENT	-7467
▁CHAN	-7468
▁CIRC	-7469
▁COMP	-7470
▁DETE	-7471
▁DIFF	-7472
▁DIST	-7473
▁ELEM	-7474
▁GOOG	-7475
▁HARD	-7476
▁LCSu	-7477
▁LENG	-7478
▁MARK	-7479
▁MEDI	-7480
▁NUMB	-7481
▁PERM	-7482
▁PROB	-7483
▁PROD	-7484
▁REPL	-7485
▁SEQU	-7486
▁STAC	-7487
▁Supp	-7488
▁Syst	-7489
▁answ	-7490
▁arra	-7491
▁belo	-7492
▁boun	-7493
▁call	-7494
▁carr	-7495
▁clas	-7496
▁clos	-7497
▁conc	-7498
▁cong	-7499
▁cumm	-7500
▁curS	-7501
▁deri	-7502
▁diam	-7503
▁dive	-7504
▁divi	-7505
▁eith	-7506
▁equi	-7507
▁ever	-7508
▁exam	-7509
▁fall	-7510
▁finr	-7511
▁fint	-7512
▁give	-7513
▁grap	-7514
▁heap	-7515
▁holo	-7516
▁impl	-7517
▁inde	-7518
▁inte	-7519
▁inva	-7520
▁inve	-7521
▁itse	-7522
▁keyp	-7523
▁leve	-7524
▁lice	-7525
▁mapp	-7526
▁maxD	-7527
▁maxH	-7528
▁maxL	-7529
▁maxP	-7530
▁	-7531
e	-7532
i	-7533
r	-7534
t	-7535
n	-7536
s	-7537
o	-7538
c	-7539
l	-7540
d	-7541
a	-7542
u	-7543
/	-7544
h	-7545
.	-7546
f	-7547
p	-7548
_	-7549
g	-7550
m	-7551
#	-7552
(	-7553
,	-7554
)	-7555
E	-7556
I	-7557
v	-7558
b	-7559
1	-7560
C	-7561
<	-7562
>	-7563
y	-7564
=	-7565
T	-7566
N	-7567
A	-7568
;	-7569
0	-7570
S	-7571
2	-7572
:	-7573
x	-7574
L	-7575
+	-7576
j	-7577
F	-7578
9	-7579
-	-7580
k	-7581
R	-7582
*	-7583
[	-7584
]	-7585
{	-7586
O	-7587
M	-7588
P	-7589
U	-7590
3	-7591
4	-7592
7	-7593
6	-7594
5	-7595
G	-7596
'	-7597
$	-7598
8	-7599
D	-7600
}	-7601
B	-7602
H	-7603
w	-7604
Y	-7605
V	-7606
X	-7607
\	-7608
W	-7609
q	-7610
K	-7611
^	-7612
%	-7613
z	-7614
Q	-7615
|	-7616
!	-7617
&	-7618
→	-7619
"	-7620
ℝ	-7621
∀	-7622
Z	-7623
∧	-7624
∃	-7625
ℕ	-7626
ℂ	-7627
J	-7628
∈	-7629
‖	-7630
₁	-7631
¬	-7632
₂	-7633
≠	-7634
Ω	-7635
λ	-7636
ℤ	-7637
𝓝	-7638
α	-7639
↔	-7640
ℚ	-7641
~	-7642
∑	-7643
⊆	-7644
ι	-7645
@	-7646
≤	-7647
⊤	-7648
β	-7649
•	-7650
∣	-7651
∨	-7652
≡	-7653
¹	-7654
×	-7655
⁻	-7656
₀	-7657
π	-7658
𝕜	-7659
∅	-7660
⧸	-7661
Π	-7662
ε	-7663
σ	-7664
∩	-7665
γ	-7666
↑	-7667
∘	-7668
≃	-7669
≥	-7670
⊂	-7671
⊥	-7672
⋂	-7673
𝓟	-7674
?	-7675
₃	-7676
ₗ	-7677
∫	-7678
⊓	-7679
⋃	-7680
⟨	-7681
⟩	-7682
⟪	-7683
⟫	-7684
Č	-7685
⁅	-7686
⁆	-7687
₄	-7688
₅	-7689
∉	-7690
∪	-7691
⨅	-7692
